{"version":"1.0","truncation":null,"padding":null,"added_tokens":[],"normalizer":null,"pre_tokenizer":{"type":"Whitespace"},"post_processor":null,"decoder":null,"model":{"type":"BPE","dropout":null,"unk_token":"[UNK]","continuing_subword_prefix":null,"end_of_word_suffix":null,"fuse_unk":false,"vocab":{"!":0,"\"":1,"#":2,"$":3,"%":4,"&":5,"'":6,"(":7,")":8,"*":9,"+":10,",":11,"-":12,".":13,"/":14,"0":15,"1":16,"2":17,"3":18,"4":19,"5":20,"6":21,"7":22,"8":23,"9":24,":":25,";":26,"<":27,"=":28,">":29,"?":30,"@":31,"A":32,"B":33,"C":34,"D":35,"E":36,"F":37,"G":38,"H":39,"I":40,"J":41,"K":42,"L":43,"M":44,"N":45,"O":46,"P":47,"Q":48,"R":49,"S":50,"T":51,"U":52,"V":53,"W":54,"X":55,"Y":56,"Z":57,"[":58,"\\":59,"]":60,"^":61,"_":62,"`":63,"a":64,"b":65,"c":66,"d":67,"e":68,"f":69,"g":70,"h":71,"i":72,"j":73,"k":74,"l":75,"m":76,"n":77,"o":78,"p":79,"q":80,"r":81,"s":82,"t":83,"u":84,"v":85,"w":86,"x":87,"y":88,"z":89,"{":90,"|":91,"}":92,"~":93,"":94,"":95,"":96,"":97,"":98,"":99,"":100,"":101,"":102,"¡":103,"¢":104,"£":105,"¤":106,"¥":107,"¦":108,"§":109,"¨":110,"©":111,"ª":112,"«":113,"¬":114,"­":115,"®":116,"¯":117,"°":118,"±":119,"²":120,"³":121,"´":122,"µ":123,"¶":124,"·":125,"¸":126,"¹":127,"º":128,"»":129,"¼":130,"½":131,"¾":132,"¿":133,"À":134,"Á":135,"Â":136,"Ã":137,"Ä":138,"Å":139,"Æ":140,"Ç":141,"È":142,"É":143,"Ê":144,"Ë":145,"Ì":146,"Í":147,"Î":148,"Ï":149,"Ð":150,"Ñ":151,"Ò":152,"Ó":153,"Ô":154,"Õ":155,"Ö":156,"×":157,"Ø":158,"Ù":159,"Ú":160,"Û":161,"Ü":162,"Ý":163,"Þ":164,"ß":165,"à":166,"á":167,"â":168,"ã":169,"ä":170,"å":171,"æ":172,"ç":173,"è":174,"é":175,"ê":176,"ë":177,"ì":178,"í":179,"î":180,"ï":181,"ð":182,"ñ":183,"ò":184,"ó":185,"ô":186,"õ":187,"ö":188,"÷":189,"ø":190,"ù":191,"ú":192,"û":193,"ü":194,"ý":195,"þ":196,"ÿ":197,"Ā":198,"ā":199,"Ă":200,"ă":201,"Ą":202,"ą":203,"Ć":204,"ć":205,"Ĉ":206,"ĉ":207,"Ċ":208,"ċ":209,"Č":210,"č":211,"Ď":212,"ď":213,"Đ":214,"đ":215,"Ē":216,"ē":217,"Ĕ":218,"ĕ":219,"Ė":220,"ė":221,"Ę":222,"ę":223,"Ě":224,"ě":225,"Ĝ":226,"ĝ":227,"Ğ":228,"ğ":229,"Ġ":230,"ġ":231,"Ģ":232,"ģ":233,"Ĥ":234,"ĥ":235,"Ħ":236,"ħ":237,"Ĩ":238,"ĩ":239,"Ī":240,"ī":241,"Ĭ":242,"ĭ":243,"Į":244,"į":245,"İ":246,"ı":247,"Ĵ":248,"ĵ":249,"Ķ":250,"ķ":251,"Ĺ":252,"ĺ":253,"Ļ":254,"ļ":255,"Ľ":256,"ľ":257,"Ŀ":258,"ŀ":259,"Ł":260,"ł":261,"Ń":262,"ń":263,"Ņ":264,"ņ":265,"Ň":266,"ň":267,"ŋ":268,"Ō":269,"ō":270,"Ŏ":271,"ŏ":272,"Ő":273,"ő":274,"Œ":275,"œ":276,"Ŕ":277,"ŕ":278,"Ŗ":279,"ŗ":280,"Ř":281,"ř":282,"Ś":283,"ś":284,"Ŝ":285,"ŝ":286,"Ş":287,"ş":288,"Š":289,"š":290,"Ţ":291,"ţ":292,"Ť":293,"ť":294,"Ŧ":295,"ŧ":296,"Ũ":297,"ũ":298,"Ū":299,"ū":300,"Ŭ":301,"ŭ":302,"Ů":303,"ů":304,"Ű":305,"ű":306,"Ų":307,"ų":308,"Ŵ":309,"ŵ":310,"Ŷ":311,"ŷ":312,"Ÿ":313,"Ź":314,"ź":315,"Ż":316,"ż":317,"Ž":318,"ž":319,"ſ":320,"Ə":321,"ƒ":322,"ơ":323,"Ƭ":324,"ư":325,"ǀ":326,"ǁ":327,"ǂ":328,"ǃ":329,"ǌ":330,"Ǎ":331,"ǎ":332,"Ǐ":333,"ǐ":334,"Ǒ":335,"ǒ":336,"Ǔ":337,"ǔ":338,"ǖ":339,"ǘ":340,"ǚ":341,"ǜ":342,"ǝ":343,"Ǣ":344,"ǣ":345,"ǧ":346,"Ǫ":347,"ǫ":348,"ǰ":349,"ǽ":350,"ȋ":351,"ȗ":352,"ș":353,"ț":354,"Ȳ":355,"ȳ":356,"ɐ":357,"ɑ":358,"ɒ":359,"ɓ":360,"ɔ":361,"ɕ":362,"ɖ":363,"ɗ":364,"ɘ":365,"ə":366,"ɚ":367,"ɛ":368,"ɜ":369,"ɝ":370,"ɞ":371,"ɟ":372,"ɠ":373,"ɡ":374,"ɢ":375,"ɣ":376,"ɤ":377,"ɥ":378,"ɦ":379,"ɧ":380,"ɨ":381,"ɩ":382,"ɪ":383,"ɫ":384,"ɬ":385,"ɭ":386,"ɮ":387,"ɯ":388,"ɰ":389,"ɱ":390,"ɲ":391,"ɳ":392,"ɴ":393,"ɵ":394,"ɶ":395,"ɸ":396,"ɹ":397,"ɺ":398,"ɻ":399,"ɽ":400,"ɾ":401,"ɿ":402,"ʀ":403,"ʁ":404,"ʂ":405,"ʃ":406,"ʄ":407,"ʇ":408,"ʈ":409,"ʉ":410,"ʊ":411,"ʋ":412,"ʌ":413,"ʍ":414,"ʎ":415,"ʏ":416,"ʐ":417,"ʑ":418,"ʒ":419,"ʔ":420,"ʕ":421,"ʘ":422,"ʙ":423,"ʛ":424,"ʜ":425,"ʝ":426,"ʞ":427,"ʟ":428,"ʡ":429,"ʢ":430,"ʧ":431,"ʨ":432,"ʰ":433,"ʲ":434,"ʷ":435,"ʻ":436,"ʼ":437,"ʾ":438,"ʿ":439,"ˀ":440,"ˁ":441,"ˈ":442,"ˉ":443,"ˌ":444,"ː":445,"ˑ":446,"˜":447,"ˠ":448,"ˡ":449,"ˢ":450,"ˤ":451,"˺":452,"́":453,"̂":454,"̃":455,"̄":456,"̆":457,"̈":458,"̉":459,"̎":460,"̓":461,"̗":462,"̜":463,"̞":464,"̠":465,"̥":466,"̩":467,"̪":468,"̫":469,"̭":470,"̮":471,"̯":472,"̰":473,"̲":474,"̴":475,"̹":476,"̺":477,"̼":478,"̿":479,"͇":480,"͉":481,"͍":482,"͑":483,"͓":484,"͖":485,"͙":486,"͚":487,"͡":488,"ͤ":489,"ͧ":490,"ͨ":491,"ͩ":492,"ͮ":493,"Ͱ":494,"Ͳ":495,"Ά":496,"Έ":497,"Ή":498,"Ί":499,"Ό":500,"Ύ":501,"Ώ":502,"Α":503,"Β":504,"Γ":505,"Δ":506,"Ε":507,"Ζ":508,"Η":509,"Θ":510,"Ι":511,"Κ":512,"Λ":513,"Μ":514,"Ν":515,"Ξ":516,"Ο":517,"Π":518,"Ρ":519,"Σ":520,"Τ":521,"Υ":522,"Φ":523,"Χ":524,"Ψ":525,"Ω":526,"ά":527,"έ":528,"ή":529,"ί":530,"α":531,"β":532,"γ":533,"δ":534,"ε":535,"ζ":536,"η":537,"θ":538,"ι":539,"κ":540,"λ":541,"μ":542,"ν":543,"ξ":544,"ο":545,"π":546,"ρ":547,"ς":548,"σ":549,"τ":550,"υ":551,"φ":552,"χ":553,"ψ":554,"ω":555,"ό":556,"ύ":557,"ώ":558,"Ϛ":559,"Ϝ":560,"Ϟ":561,"Ϸ":562,"Ϻ":563,"Ͼ":564,"Ё":565,"Ђ":566,"Ѓ":567,"Є":568,"Ѕ":569,"І":570,"Ї":571,"Ј":572,"Љ":573,"Њ":574,"Ћ":575,"Ќ":576,"Ў":577,"Џ":578,"А":579,"Б":580,"В":581,"Г":582,"Д":583,"Е":584,"Ж":585,"З":586,"И":587,"Й":588,"К":589,"Л":590,"М":591,"Н":592,"О":593,"П":594,"Р":595,"С":596,"Т":597,"У":598,"Ф":599,"Х":600,"Ц":601,"Ч":602,"Ш":603,"Щ":604,"Ъ":605,"Ы":606,"Ь":607,"Э":608,"Ю":609,"Я":610,"а":611,"б":612,"в":613,"г":614,"д":615,"е":616,"ж":617,"з":618,"и":619,"й":620,"к":621,"л":622,"м":623,"н":624,"о":625,"п":626,"р":627,"с":628,"т":629,"у":630,"ф":631,"х":632,"ц":633,"ч":634,"ш":635,"щ":636,"ъ":637,"ы":638,"ь":639,"э":640,"ю":641,"я":642,"ё":643,"ђ":644,"ѓ":645,"є":646,"ѕ":647,"і":648,"ї":649,"ј":650,"љ":651,"њ":652,"ћ":653,"ќ":654,"ў":655,"џ":656,"ѧ":657,"҅":658,"҈":659,"҉":660,"Ґ":661,"ґ":662,"Қ":663,"қ":664,"ҝ":665,"ү":666,"Ӝ":667,"Ӣ":668,"ӧ":669,"Ө":670,"ө":671,"Ճ":672,"Շ":673,"Ո":674,"ա":675,"գ":676,"թ":677,"ի":678,"մ":679,"յ":680,"ն":681,"շ":682,"ո":683,"տ":684,"ր":685,"ւ":686,"֑":687,"ְ":688,"ֲ":689,"ִ":690,"ֵ":691,"ֶ":692,"ַ":693,"ָ":694,"ֻ":695,"ּ":696,"׀":697,"ׁ":698,"א":699,"ב":700,"ג":701,"ד":702,"ה":703,"ו":704,"ז":705,"ח":706,"ט":707,"י":708,"ך":709,"כ":710,"ל":711,"ם":712,"מ":713,"ן":714,"נ":715,"ס":716,"ע":717,"פ":718,"ץ":719,"צ":720,"ק":721,"ר":722,"ש":723,"ת":724,"״":725,"،":726,"ء":727,"آ":728,"أ":729,"ؤ":730,"إ":731,"ئ":732,"ا":733,"ب":734,"ة":735,"ت":736,"ث":737,"ج":738,"ح":739,"خ":740,"د":741,"ذ":742,"ر":743,"ز":744,"س":745,"ش":746,"ص":747,"ض":748,"ط":749,"ظ":750,"ع":751,"غ":752,"ف":753,"ق":754,"ك":755,"ل":756,"م":757,"ن":758,"ه":759,"و":760,"ى":761,"ي":762,"ً":763,"ُ":764,"ّ":765,"ٔ":766,"پ":767,"چ":768,"ڈ":769,"ڜ":770,"ک":771,"ڬ":772,"گ":773,"ڰ":774,"ڵ":775,"ہ":776,"ی":777,"۝":778,"۞":779,"۩":780,"۬":781,"۵":782,"۸":783,"ۻ":784,"۾":785,"ܐ":786,"ܘ":787,"ܝ":788,"ܣ":789,"ܪ":790,"ݓ":791,"ݗ":792,"ݜ":793,"ݟ":794,"ݡ":795,"ݣ":796,"ݭ":797,"߷":798,"ँ":799,"ं":800,"अ":801,"आ":802,"इ":803,"उ":804,"ऋ":805,"औ":806,"क":807,"ख":808,"ग":809,"घ":810,"च":811,"ज":812,"झ":813,"ट":814,"ठ":815,"ड":816,"ण":817,"त":818,"थ":819,"द":820,"ध":821,"न":822,"प":823,"फ":824,"ब":825,"भ":826,"म":827,"य":828,"र":829,"ल":830,"व":831,"श":832,"ष":833,"स":834,"ह":835,"़":836,"ा":837,"ि":838,"ी":839,"ु":840,"ू":841,"ृ":842,"ॆ":843,"े":844,"ै":845,"ॉ":846,"ो":847,"्":848,"ॐ":849,"०":850,"१":851,"२":852,"३":853,"४":854,"५":855,"६":856,"७":857,"८":858,"९":859,"ং":860,"অ":861,"ই":862,"ক":863,"জ":864,"ট":865,"ত":866,"দ":867,"ন":868,"ব":869,"ভ":870,"ম":871,"য":872,"র":873,"ল":874,"স":875,"হ":876,"়":877,"া":878,"ি":879,"ু":880,"ে":881,"ো":882,"ৌ":883,"্":884,"০":885,"১":886,"২":887,"৳":888,"ਖ":889,"ਜ":890,"ਨ":891,"ਫ":892,"ਮ":893,"ਰ":894,"ਸ":895,"਼":896,"ਾ":897,"ੁ":898,"੭":899,"અ":900,"દ":901,"ન":902,"વ":903,"ા":904,"ુ":905,"୯":906,"அ":907,"ஆ":908,"இ":909,"உ":910,"எ":911,"ஒ":912,"க":913,"ங":914,"ச":915,"ஜ":916,"ட":917,"ண":918,"த":919,"ந":920,"ன":921,"ப":922,"ம":923,"ய":924,"ர":925,"ற":926,"ல":927,"ள":928,"ழ":929,"வ":930,"ா":931,"ி":932,"ீ":933,"ு":934,"ெ":935,"ே":936,"ை":937,"ொ":938,"ோ":939,"்":940,"௹":941,"అ":942,"ద":943,"న":944,"వ":945,"ా":946,"ు":947,"ಅ":948,"ಠ":949,"ದ":950,"ನ":951,"ವ":952,"ಾ":953,"ು":954,"ം":955,"ക":956,"ട":957,"ദ":958,"മ":959,"ര":960,"വ":961,"സ":962,"ാ":963,"െ":964,"ോ":965,"്":966,"ක":967,"ත":968,"ඳ":969,"ර":970,"ව":971,"්":972,"ු":973,"ก":974,"ค":975,"ต":976,"ป":977,"ม":978,"ย":979,"ร":980,"ล":981,"ว":982,"อ":983,"า":984,"ุ":985,"฿":986,"แ":987,"่":988,"๛":989,"ກ":990,"ຄ":991,"ງ":992,"ຈ":993,"ຊ":994,"ດ":995,"ຕ":996,"ທ":997,"ນ":998,"ປ":999,"ພ":1000,"ມ":1001,"ຣ":1002,"ລ":1003,"ວ":1004,"ສ":1005,"ຫ":1006,"ອ":1007,"ຮ":1008,"ະ":1009,"ັ":1010,"າ":1011,"ິ":1012,"ີ":1013,"ຸ":1014,"ູ":1015,"ົ":1016,"ຼ":1017,"ແ":1018,"ໂ":1019,"ໄ":1020,"່":1021,"ໜ":1022,"༆":1023,"࿓":1024,"ა":1025,"გ":1026,"ე":1027,"ვ":1028,"თ":1029,"ი":1030,"ლ":1031,"მ":1032,"ნ":1033,"ო":1034,"პ":1035,"რ":1036,"ს":1037,"ფ":1038,"ღ":1039,"ხ":1040,"ჷ":1041,"ት":1042,"ው":1043,"ይ":1044,"ᚹ":1045,"ᛇ":1046,"ᛏ":1047,"ᛟ":1048,"ក":1049,"ប":1050,"រ":1051,"ែ":1052,"្":1053,"៛":1054,"᧾":1055,"ᴀ":1056,"ᴥ":1057,"ᴬ":1058,"ᴷ":1059,"ᴸ":1060,"ᵀ":1061,"ᵃ":1062,"ᵏ":1063,"ᵗ":1064,"ᵮ":1065,"ᶏ":1066,"Ḍ":1067,"ḍ":1068,"ḟ":1069,"Ḡ":1070,"Ḥ":1071,"ḥ":1072,"Ḷ":1073,"ḷ":1074,"Ḹ":1075,"ḹ":1076,"ḻ":1077,"ṁ":1078,"Ṃ":1079,"ṃ":1080,"ṅ":1081,"Ṇ":1082,"ṇ":1083,"ṗ":1084,"ṙ":1085,"Ṛ":1086,"ṛ":1087,"Ṝ":1088,"ṝ":1089,"Ṣ":1090,"ṣ":1091,"ṧ":1092,"ṫ":1093,"Ṭ":1094,"ṭ":1095,"ṯ":1096,"ẓ":1097,"ạ":1098,"ả":1099,"ấ":1100,"ầ":1101,"ẫ":1102,"ậ":1103,"ắ":1104,"ằ":1105,"ặ":1106,"ẹ":1107,"Ẽ":1108,"ẽ":1109,"ế":1110,"ể":1111,"ễ":1112,"ệ":1113,"ỉ":1114,"ị":1115,"ọ":1116,"ỏ":1117,"ố":1118,"ộ":1119,"ờ":1120,"ợ":1121,"ụ":1122,"ứ":1123,"ừ":1124,"ử":1125,"ữ":1126,"ự":1127,"Ỹ":1128,"ỹ":1129,"ἀ":1130,"ἐ":1131,"ἑ":1132,"ἔ":1133,"Ἐ":1134,"ἠ":1135,"ἡ":1136,"ἰ":1137,"ἱ":1138,"ἴ":1139,"ὀ":1140,"ὂ":1141,"ὄ":1142,"ὅ":1143,"Ὀ":1144,"ὧ":1145,"ὰ":1146,"ὲ":1147,"ὶ":1148,"ὸ":1149,"ὺ":1150,"ὼ":1151,"ᾳ":1152,"ᾶ":1153,"᾽":1154,"ῃ":1155,"ῆ":1156,"ῖ":1157,"ῦ":1158,"ῶ":1159,"ῷ":1160,"ῼ":1161,"​":1162,"‍":1163,"‎":1164,"‏":1165,"‐":1166,"‑":1167,"‒":1168,"–":1169,"—":1170,"―":1171,"‖":1172,"‘":1173,"’":1174,"“":1175,"”":1176,"„":1177,"†":1178,"‡":1179,"•":1180,"…":1181,"‧":1182,"‪":1183,"‫":1184,"‬":1185,"′":1186,"″":1187,"‹":1188,"›":1189,"‽":1190,"‿":1191,"⁂":1192,"⁄":1193,"⁓":1194,"⁞":1195,"⁠":1196,"⁰":1197,"⁴":1198,"⁽":1199,"⁾":1200,"ⁿ":1201,"₂":1202,"₠":1203,"₡":1204,"₢":1205,"₣":1206,"₤":1207,"₥":1208,"₦":1209,"₧":1210,"₨":1211,"₩":1212,"₪":1213,"₫":1214,"€":1215,"₭":1216,"₮":1217,"₯":1218,"₰":1219,"₳":1220,"₴":1221,"₵":1222,"ℍ":1223,"ℓ":1224,"№":1225,"ℚ":1226,"ℝ":1227,"℠":1228,"™":1229,"℥":1230,"ℱ":1231,"Ⅎ":1232,"ℳ":1233,"⅓":1234,"⅔":1235,"⅛":1236,"⅜":1237,"⅝":1238,"⅞":1239,"Ⅱ":1240,"ↄ":1241,"←":1242,"↑":1243,"→":1244,"↓":1245,"↔":1246,"↕":1247,"↗":1248,"↨":1249,"⇄":1250,"⇒":1251,"⇔":1252,"⇝":1253,"∀":1254,"∂":1255,"∅":1256,"∆":1257,"∇":1258,"∈":1259,"∑":1260,"−":1261,"∗":1262,"∙":1263,"√":1264,"∞":1265,"∧":1266,"∪":1267,"∫":1268,"∴":1269,"≈":1270,"≠":1271,"≡":1272,"≤":1273,"≥":1274,"≼":1275,"≽":1276,"⊂":1277,"⊕":1278,"⊗":1279,"⊙":1280,"⊝":1281,"⊥":1282,"⋅":1283,"⌊":1284,"〈":1285,"Ⓐ":1286,"Ⓣ":1287,"─":1288,"━":1289,"│":1290,"┃":1291,"┌":1292,"┏":1293,"┐":1294,"┓":1295,"└":1296,"┗":1297,"┘":1298,"┛":1299,"├":1300,"═":1301,"║":1302,"╔":1303,"╗":1304,"╚":1305,"╝":1306,"╟":1307,"╢":1308,"╦":1309,"╩":1310,"╫":1311,"█":1312,"▎":1313,"■":1314,"▪":1315,"▫":1316,"▲":1317,"△":1318,"▶":1319,"►":1320,"▾":1321,"◀":1322,"◁":1323,"◄":1324,"◅":1325,"○":1326,"●":1327,"◔":1328,"◕":1329,"◥":1330,"◦":1331,"◯":1332,"☀":1333,"☃":1334,"☄":1335,"★":1336,"☆":1337,"☇":1338,"☎":1339,"☏":1340,"☑":1341,"☓":1342,"☘":1343,"☛":1344,"☜":1345,"☝":1346,"☞":1347,"☠":1348,"☢":1349,"☣":1350,"☤":1351,"☥":1352,"☭":1353,"☮":1354,"☯":1355,"☸":1356,"☺":1357,"☻":1358,"☼":1359,"☽":1360,"☾":1361,"☿":1362,"♀":1363,"♂":1364,"♑":1365,"♔":1366,"♚":1367,"♝":1368,"♠":1369,"♣":1370,"♥":1371,"♦":1372,"♨":1373,"♩":1374,"♪":1375,"♫":1376,"♬":1377,"⚇":1378,"⚔":1379,"✄":1380,"✆":1381,"✈":1382,"✉":1383,"✋":1384,"✌":1385,"✍":1386,"✎":1387,"✐":1388,"✒":1389,"✓":1390,"✔":1391,"✗":1392,"✘":1393,"✞":1394,"✤":1395,"✫":1396,"✭":1397,"✰":1398,"✽":1399,"✿":1400,"❉":1401,"❖":1402,"❝":1403,"❞":1404,"❤":1405,"❦":1406,"➔":1407,"➜":1408,"➥":1409,"➨":1410,"➪":1411,"⟨":1412,"⟩":1413,"⟲":1414,"⨹":1415,"Ᵽ":1416,"ⱷ":1417,"ⲟ":1418,"ⲧ":1419,"ⲩ":1420,"ⲱ":1421,"、":1422,"。":1423,"〈":1424,"〉":1425,"《":1426,"》":1427,"「":1428,"」":1429,"『":1430,"』":1431,"【":1432,"】":1433,"あ":1434,"い":1435,"う":1436,"え":1437,"お":1438,"か":1439,"が":1440,"き":1441,"ぎ":1442,"く":1443,"け":1444,"げ":1445,"こ":1446,"ご":1447,"さ":1448,"ざ":1449,"し":1450,"じ":1451,"す":1452,"ず":1453,"せ":1454,"ぜ":1455,"そ":1456,"ぞ":1457,"た":1458,"だ":1459,"ち":1460,"っ":1461,"つ":1462,"て":1463,"で":1464,"と":1465,"ど":1466,"な":1467,"に":1468,"ぬ":1469,"ね":1470,"の":1471,"は":1472,"ば":1473,"ひ":1474,"び":1475,"ふ":1476,"へ":1477,"べ":1478,"ほ":1479,"ま":1480,"み":1481,"め":1482,"も":1483,"ゃ":1484,"や":1485,"ゅ":1486,"ょ":1487,"よ":1488,"ら":1489,"り":1490,"る":1491,"れ":1492,"ろ":1493,"わ":1494,"を":1495,"ん":1496,"ァ":1497,"ア":1498,"ィ":1499,"イ":1500,"ウ":1501,"ェ":1502,"エ":1503,"オ":1504,"カ":1505,"ガ":1506,"キ":1507,"ギ":1508,"ク":1509,"グ":1510,"ケ":1511,"コ":1512,"ゴ":1513,"サ":1514,"ザ":1515,"シ":1516,"ジ":1517,"ス":1518,"セ":1519,"ソ":1520,"タ":1521,"チ":1522,"ッ":1523,"ツ":1524,"テ":1525,"デ":1526,"ト":1527,"ド":1528,"ナ":1529,"ニ":1530,"ヌ":1531,"ノ":1532,"ハ":1533,"バ":1534,"パ":1535,"ヒ":1536,"ビ":1537,"ピ":1538,"フ":1539,"ブ":1540,"プ":1541,"ヘ":1542,"ベ":1543,"ペ":1544,"ホ":1545,"ボ":1546,"ポ":1547,"マ":1548,"ム":1549,"メ":1550,"モ":1551,"ャ":1552,"ュ":1553,"ョ":1554,"ラ":1555,"リ":1556,"ル":1557,"レ":1558,"ロ":1559,"ヮ":1560,"ワ":1561,"ン":1562,"ヴ":1563,"・":1564,"ー":1565,"ヽ":1566,"ㄉ":1567,"ㄏ":1568,"ㄤ":1569,"ㄧ":1570,"ㄨ":1571,"ㄷ":1572,"ㅂ":1573,"ㅅ":1574,"㊟":1575,"㎥":1576,"一":1577,"七":1578,"万":1579,"丈":1580,"三":1581,"上":1582,"下":1583,"不":1584,"世":1585,"东":1586,"並":1587,"个":1588,"中":1589,"主":1590,"么":1591,"乐":1592,"乙":1593,"九":1594,"也":1595,"了":1596,"事":1597,"二":1598,"井":1599,"亞":1600,"京":1601,"人":1602,"什":1603,"今":1604,"介":1605,"他":1606,"付":1607,"仙":1608,"代":1609,"令":1610,"以":1611,"仮":1612,"会":1613,"伝":1614,"但":1615,"位":1616,"佐":1617,"体":1618,"你":1619,"佩":1620,"使":1621,"來":1622,"例":1623,"便":1624,"係":1625,"信":1626,"們":1627,"倒":1628,"偏":1629,"做":1630,"健":1631,"傳":1632,"働":1633,"僑":1634,"儀":1635,"先":1636,"內":1637,"八":1638,"公":1639,"共":1640,"兵":1641,"典":1642,"兼":1643,"内":1644,"冒":1645,"写":1646,"出":1647,"刀":1648,"列":1649,"初":1650,"別":1651,"利":1652,"到":1653,"制":1654,"前":1655,"副":1656,"劇":1657,"劉":1658,"加":1659,"助":1660,"労":1661,"動":1662,"務":1663,"勞":1664,"包":1665,"北":1666,"区":1667,"十":1668,"千":1669,"卋":1670,"卐":1671,"南":1672,"占":1673,"即":1674,"卷":1675,"卻":1676,"历":1677,"原":1678,"參":1679,"反":1680,"古":1681,"句":1682,"只":1683,"可":1684,"台":1685,"史":1686,"号":1687,"合":1688,"吉":1689,"同":1690,"名":1691,"后":1692,"吕":1693,"吗":1694,"君":1695,"吳":1696,"味":1697,"命":1698,"和":1699,"咨":1700,"品":1701,"商":1702,"啥":1703,"啼":1704,"喷":1705,"嗎":1706,"器":1707,"四":1708,"因":1709,"国":1710,"國":1711,"圍":1712,"土":1713,"在":1714,"地":1715,"坊":1716,"坡":1717,"執":1718,"基":1719,"場":1720,"堵":1721,"塩":1722,"墓":1723,"声":1724,"壹":1725,"変":1726,"外":1727,"夜":1728,"大":1729,"天":1730,"太":1731,"女":1732,"好":1733,"妈":1734,"姓":1735,"姻":1736,"威":1737,"子":1738,"字":1739,"学":1740,"孫":1741,"學":1742,"守":1743,"安":1744,"宕":1745,"官":1746,"定":1747,"客":1748,"家":1749,"容":1750,"實":1751,"寧":1752,"对":1753,"対":1754,"專":1755,"小":1756,"少":1757,"就":1758,"尻":1759,"屋":1760,"屌":1761,"山":1762,"岡":1763,"岩":1764,"島":1765,"川":1766,"己":1767,"已":1768,"巾":1769,"市":1770,"布":1771,"帝":1772,"師":1773,"干":1774,"平":1775,"年":1776,"庄":1777,"府":1778,"度":1779,"廣":1780,"张":1781,"影":1782,"很":1783,"後":1784,"御":1785,"心":1786,"忍":1787,"志":1788,"快":1789,"思":1790,"总":1791,"恵":1792,"您":1793,"情":1794,"惑":1795,"意":1796,"愛":1797,"感":1798,"慕":1799,"慧":1800,"憲":1801,"成":1802,"我":1803,"或":1804,"戸":1805,"所":1806,"手":1807,"承":1808,"投":1809,"抗":1810,"折":1811,"拉":1812,"括":1813,"指":1814,"捏":1815,"排":1816,"援":1817,"搏":1818,"撃":1819,"撰":1820,"操":1821,"擲":1822,"改":1823,"攻":1824,"政":1825,"故":1826,"敏":1827,"文":1828,"断":1829,"新":1830,"方":1831,"於":1832,"既":1833,"日":1834,"早":1835,"旭":1836,"明":1837,"是":1838,"時":1839,"普":1840,"景":1841,"智":1842,"書":1843,"曹":1844,"最":1845,"月":1846,"有":1847,"服":1848,"朝":1849,"期":1850,"未":1851,"本":1852,"朱":1853,"村":1854,"東":1855,"松":1856,"林":1857,"柜":1858,"柱":1859,"柳":1860,"栗":1861,"校":1862,"格":1863,"桔":1864,"桜":1865,"梁":1866,"梨":1867,"楊":1868,"楩":1869,"橘":1870,"次":1871,"歡":1872,"止":1873,"步":1874,"武":1875,"母":1876,"氏":1877,"民":1878,"水":1879,"永":1880,"求":1881,"汉":1882,"江":1883,"決":1884,"沖":1885,"沪":1886,"河":1887,"油":1888,"治":1889,"法":1890,"泛":1891,"波":1892,"泥":1893,"注":1894,"洛":1895,"洪":1896,"洲":1897,"活":1898,"浦":1899,"海":1900,"涛":1901,"清":1902,"済":1903,"渡":1904,"湖":1905,"準":1906,"溪":1907,"满":1908,"滬":1909,"演":1910,"漢":1911,"澄":1912,"濟":1913,"濤":1914,"瀾":1915,"灣":1916,"火":1917,"為":1918,"烂":1919,"焉":1920,"然":1921,"照":1922,"熊":1923,"熱":1924,"爽":1925,"版":1926,"牛":1927,"牝":1928,"牡":1929,"物":1930,"特":1931,"犬":1932,"独":1933,"猛":1934,"猫":1935,"獨":1936,"王":1937,"珊":1938,"班":1939,"現":1940,"球":1941,"琉":1942,"瑚":1943,"生":1944,"用":1945,"田":1946,"甲":1947,"町":1948,"界":1949,"番":1950,"疆":1951,"疋":1952,"登":1953,"白":1954,"百":1955,"的":1956,"益":1957,"盒":1958,"目":1959,"省":1960,"県":1961,"真":1962,"督":1963,"知":1964,"石":1965,"砂":1966,"磨":1967,"祖":1968,"祝":1969,"神":1970,"福":1971,"科":1972,"稱":1973,"稿":1974,"穣":1975,"窣":1976,"立":1977,"站":1978,"竜":1979,"竹":1980,"笑":1981,"筆":1982,"粵":1983,"粿":1984,"紅":1985,"純":1986,"紙":1987,"素":1988,"紫":1989,"終":1990,"組":1991,"絡":1992,"統":1993,"継":1994,"維":1995,"線":1996,"緣":1997,"編":1998,"縄":1999,"縣":2000,"織":2001,"绍":2002,"缎":2003,"网":2004,"置":2005,"羊":2006,"美":2007,"義":2008,"翁":2009,"翻":2010,"翼":2011,"老":2012,"者":2013,"而":2014,"聖":2015,"聯":2016,"職":2017,"肥":2018,"胜":2019,"臧":2020,"自":2021,"臭":2022,"臺":2023,"臼":2024,"航":2025,"船":2026,"良":2027,"芜":2028,"芦":2029,"若":2030,"英":2031,"范":2032,"草":2033,"莱":2034,"華":2035,"葦":2036,"蒙":2037,"薩":2038,"薬":2039,"藏":2040,"藩":2041,"蘭":2042,"虞":2043,"蛋":2044,"蝴":2045,"蝶":2046,"血":2047,"行":2048,"術":2049,"衛":2050,"表":2051,"袁":2052,"被":2053,"製":2054,"西":2055,"要":2056,"見":2057,"視":2058,"言":2059,"討":2060,"記":2061,"訣":2062,"訪":2063,"訳":2064,"詠":2065,"話":2066,"認":2067,"語":2068,"說":2069,"調":2070,"論":2071,"謚":2072,"講":2073,"謝":2074,"记":2075,"论":2076,"译":2077,"话":2078,"谢":2079,"谷":2080,"豆":2081,"貢":2082,"賜":2083,"起":2084,"越":2085,"路":2086,"軍":2087,"輝":2088,"輯":2089,"輸":2090,"辺":2091,"过":2092,"迎":2093,"近":2094,"这":2095,"迷":2096,"退":2097,"逆":2098,"這":2099,"通":2100,"造":2101,"連":2102,"達":2103,"遯":2104,"選":2105,"邈":2106,"郎":2107,"郡":2108,"部":2109,"郭":2110,"都":2111,"酸":2112,"醫":2113,"里":2114,"野":2115,"金":2116,"銀":2117,"録":2118,"钾":2119,"長":2120,"长":2121,"関":2122,"閩":2123,"闘":2124,"防":2125,"阿":2126,"陈":2127,"院":2128,"陳":2129,"陸":2130,"険":2131,"陽":2132,"隨":2133,"隻":2134,"雖":2135,"雞":2136,"雪":2137,"雲":2138,"電":2139,"需":2140,"青":2141,"静":2142,"靜":2143,"面":2144,"韦":2145,"頁":2146,"頭":2147,"題":2148,"顧":2149,"页":2150,"项":2151,"颈":2152,"風":2153,"飞":2154,"馬":2155,"駅":2156,"驚":2157,"體":2158,"高":2159,"鮮":2160,"鳴":2161,"鹿":2162,"麗":2163,"黃":2164,"黄":2165,"龍":2166,"龙":2167,"龜":2168,"龱":2169,"강":2170,"개":2171,"경":2172,"고":2173,"공":2174,"구":2175,"군":2176,"기":2177,"길":2178,"날":2179,"넘":2180,"눈":2181,"뉴":2182,"는":2183,"다":2184,"대":2185,"도":2186,"독":2187,"때":2188,"려":2189,"룡":2190,"리":2191,"마":2192,"맛":2193,"문":2194,"민":2195,"받":2196,"번":2197,"보":2198,"비":2199,"빠":2200,"상":2201,"서":2202,"선":2203,"소":2204,"순":2205,"승":2206,"아":2207,"안":2208,"야":2209,"역":2210,"요":2211,"유":2212,"의":2213,"이":2214,"인":2215,"있":2216,"자":2217,"잡":2218,"조":2219,"주":2220,"지":2221,"짐":2222,"집":2223,"찜":2224,"척":2225,"천":2226,"첫":2227,"청":2228,"칠":2229,"침":2230,"틀":2231,"편":2232,"헌":2233,"혈":2234,"호":2235,"":2236,"":2237,"":2238,"":2239,"":2240,"":2241,"":2242,"":2243,"":2244,"":2245,"":2246,"":2247,"":2248,"":2249,"":2250,"":2251,"":2252,"":2253,"ﬂ":2254,"︵":2255,"﻿":2256,"！":2257,"（":2258,"）":2259,"，":2260,"－":2261,"．":2262,"／":2263,"０":2264,"１":2265,"６":2266,"８":2267,"：":2268,"？":2269,"Ａ":2270,"Ｔ":2271,"ａ":2272,"ｃ":2273,"ｋ":2274,"ｌ":2275,"ｍ":2276,"ｎ":2277,"ｏ":2278,"ｗ":2279,"｡":2280,"･":2281,"ｨ":2282,"ｱ":2283,"ｳ":2284,"ｷ":2285,"ﾃ":2286,"ﾉ":2287,"ﾍ":2288,"ﾞ":2289,"ﾟ":2290,"�":2291,"𐌰":2292,"𐌲":2293,"𐌴":2294,"𐌹":2295,"𐌿":2296,"𒁳":2297,"🍁":2298,"🍌":2299,"🎄":2300,"🎤":2301,"🏼":2302,"👍":2303,"💜":2304,"💩":2305,"💬":2306,"📞":2307,"📧":2308,"🗽":2309,"😀":2310,"😂":2311,"😃":2312,"😄":2313,"😅":2314,"😉":2315,"😊":2316,"😏":2317,"😔":2318,"😜":2319,"😢":2320,"🙈":2321,"🙉":2322,"🙊":2323,"th":2324,"in":2325,"re":2326,"an":2327,"on":2328,"the":2329,"ou":2330,"at":2331,"is":2332,"er":2333,"ed":2334,"or":2335,"it":2336,"le":2337,"to":2338,"en":2339,"al":2340,"ing":2341,"as":2342,"ar":2343,"es":2344,"ic":2345,"and":2346,"you":2347,"of":2348,"ion":2349,"st":2350,"se":2351,"be":2352,"no":2353,"om":2354,"ve":2355,"he":2356,"ly":2357,"that":2358,"ag":2359,"\"\"":2360,"ac":2361,"ad":2362,"for":2363,"ent":2364,"wi":2365,"me":2366,"ll":2367,"wh":2368,"de":2369,"not":2370,"ro":2371,"ha":2372,"ut":2373,"art":2374,"us":2375,"ab":2376,"ld":2377,"ver":2378,"lo":2379,"ch":2380,"ay":2381,"con":2382,"are":2383,"li":2384,"ce":2385,"su":2386,"ri":2387,"ct":2388,"this":2389,"pe":2390,"we":2391,"artic":2392,"age":2393,"ation":2394,"un":2395,"ia":2396,"id":2397,"im":2398,"po":2399,"ke":2400,"do":2401,"article":2402,"mo":2403,"have":2404,"so":2405,"am":2406,"ould":2407,"ist":2408,"gh":2409,"ki":2410,"with":2411,"out":2412,"if":2413,"te":2414,"com":2415,"your":2416,"ate":2417,"ther":2418,"ne":2419,"pro":2420,"ter":2421,"ped":2422,"one":2423,"was":2424,"The":2425,"but":2426,"ir":2427,"our":2428,"!!":2429,"sh":2430,"Wi":2431,"Th":2432,"ck":2433,"edit":2434,"pedia":2435,"est":2436,"ow":2437,"ple":2438,"..":2439,"ment":2440,"any":2441,"ain":2442,"all":2443,"fr":2444,"kipedia":2445,"per":2446,"ex":2447,"page":2448,"fe":2449,"ome":2450,"ur":2451,"il":2452,"go":2453,"my":2454,"qu":2455,"ant":2456,"et":2457,"ap":2458,"ust":2459,"alk":2460,"use":2461,"pl":2462,"by":2463,"ase":2464,"ght":2465,"can":2466,"ally":2467,"from":2468,"act":2469,"some":2470,"ink":2471,"now":2472,"Wikipedia":2473,"ig":2474,"res":2475,"vi":2476,"ul":2477,"cont":2478,"ol":2479,"up":2480,"about":2481,"nd":2482,"tr":2483,"other":2484,"here":2485,"wor":2486,"bo":2487,"dis":2488,"ive":2489,"has":2490,"talk":2491,"nt":2492,"thing":2493,"ma":2494,"cl":2495,"let":2496,"ity":2497,"see":2498,"ks":2499,"like":2500,"00":2501,"will":2502,"ces":2503,"ame":2504,"ions":2505,"would":2506,"co":2507,"red":2508,"there":2509,"what":2510,"ers":2511,"ard":2512,"ind":2513,"add":2514,"ich":2515,"able":2516,"You":2517,"ci":2518,"ite":2519,"fo":2520,"ort":2521,"just":2522,"ish":2523,"ti":2524,"know":2525,"If":2526,"el":2527,"od":2528,"ous":2529,"who":2530,"ang":2531,"they":2532,"ev":2533,"ated":2534,"don":2535,"It":2536,"der":2537,"been":2538,"ca":2539,"which":2540,"um":2541,"more":2542,"ack":2543,"should":2544,"sour":2545,"ong":2546,"form":2547,"ho":2548,"les":2549,"ew":2550,"min":2551,"ok":2552,"ree":2553,"end":2554,"way":2555,"ian":2556,"delet":2557,"very":2558,"think":2559,"!!!!":2560,"int":2561,"gr":2562,"pt":2563,"rit":2564,"ies":2565,"read":2566,"spe":2567,"si":2568,"cause":2569,"blo":2570,"ast":2571,"Than":2572,"his":2573,"ot":2574,"gu":2575,"cus":2576,"ser":2577,"sion":2578,"lic":2579,"did":2580,"ction":2581,"than":2582,"port":2583,"ople":2584,"Wh":2585,"ren":2586,"pre":2587,"ta":2588,"ound":2589,"ra":2590,"ages":2591,"say":2592,"lease":2593,"son":2594,"quest":2595,"get":2596,"ble":2597,"iv":2598,"people":2599,"ud":2600,"ary":2601,"ine":2602,"ough":2603,"He":2604,"...":2605,"sel":2606,"In":2607,"op":2608,"does":2609,"because":2610,"ess":2611,"ill":2612,"ber":2613,"them":2614,"only":2615,"pos":2616,"je":2617,"ge":2618,"Please":2619,"block":2620,"ory":2621,"ure":2622,"This":2623,"Re":2624,"ass":2625,"ans":2626,"right":2627,"time":2628,"may":2629,"CK":2630,"ue":2631,"need":2632,"top":2633,"pr":2634,"ence":2635,"also":2636,"ject":2637,"iz":2638,"ism":2639,"articles":2640,"link":2641,"king":2642,"200":2643,"were":2644,"self":2645,"ved":2646,"ign":2647,"remo":2648,"ors":2649,"ice":2650,"want":2651,"cor":2652,"ry":2653,"cre":2654,"then":2655,"ace":2656,"uck":2657,"19":2658,"ru":2659,"OU":2660,"ical":2661,"its":2662,"ial":2663,"tt":2664,"how":2665,"when":2666,"person":2667,"discus":2668,"hel":2669,"fa":2670,"being":2671,"ire":2672,"ms":2673,"put":2674,"ub":2675,"under":2676,").":2677,"their":2678,"cou":2679,"ade":2680,"AN":2681,"view":2682,"vert":2683,"ear":2684,"inform":2685,"att":2686,"ep":2687,"mat":2688,"sa":2689,"ight":2690,"ER":2691,"had":2692,"again":2693,"sub":2694,"feren":2695,"off":2696,"name":2697,"new":2698,"come":2699,"ob":2700,"hi":2701,"fact":2702,"help":2703,"20":2704,"point":2705,"list":2706,"make":2707,"please":2708,"ations":2709,"why":2710,"ens":2711,"comment":2712,"even":2713,"try":2714,"chang":2715,"man":2716,"''":2717,"fir":2718,"back":2719,"ide":2720,"user":2721,"information":2722,"cons":2723,"ving":2724,"fore":2725,"ason":2726,"YOU":2727,"contri":2728,"over":2729,"ance":2730,"TH":2731,"could":2732,"ose":2733,"work":2734,"py":2735,"des":2736,"IN":2737,"where":2738,"ile":2739,"pres":2740,"stand":2741,"log":2742,"11":2743,"andal":2744,"af":2745,"good":2746,"Thanks":2747,"UCK":2748,"used":2749,"ty":2750,"lear":2751,"look":2752,"sources":2753,"ful":2754,"such":2755,"rent":2756,"rest":2757,"RE":2758,"most":2759,"cur":2760,"pages":2761,"deletion":2762,"WP":2763,"Ch":2764,"ict":2765,"war":2766,"bet":2767,"As":2768,"sp":2769,"well":2770,"And":2771,"ific":2772,"au":2773,"arch":2774,"day":2775,"ual":2776,"ition":2777,"//":2778,"part":2779,"ced":2780,"ince":2781,"incl":2782,"em":2783,"own":2784,"Al":2785,"Ar":2786,"reason":2787,"uch":2788,"section":2789,"hap":2790,"==":2791,"lit":2792,"comm":2793,"vandal":2794,"av":2795,"dif":2796,"tw":2797,"source":2798,"pri":2799,"editing":2800,"find":2801,"less":2802,"No":2803,"revert":2804,"referen":2805,"wr":2806,"ick":2807,"ates":2808,"lish":2809,"We":2810,"So":2811,"ak":2812,"xt":2813,"edits":2814,"ip":2815,"reg":2816,"him":2817,"made":2818,"tem":2819,"first":2820,"cer":2821,"these":2822,"ach":2823,"med":2824,"gen":2825,"reat":2826,"cent":2827,"ting":2828,"many":2829,"contribut":2830,"clo":2831,"aw":2832,"hist":2833,"ually":2834,"fuck":2835,"much":2836,"du":2837,"word":2838,"Talk":2839,"post":2840,"ie":2841,"!!!!!!!!":2842,"ts":2843,"deleted":2844,"into":2845,"mer":2846,"tag":2847,"sup":2848,"call":2849,"UT":2850,"admin":2851,"ng":2852,"her":2853,"cy":2854,"gg":2855,"che":2856,"cept":2857,"ise":2858,"There":2859,"discussion":2860,"really":2861,"same":2862,"every":2863,"ask":2864,"),":2865,"inte":2866,"low":2867,"sim":2868,"ating":2869,"mis":2870,"IS":2871,"fin":2872,"ning":2873,"ave":2874,"ious":2875,"cri":2876,"polic":2877,"aim":2878,"AT":2879,"Thank":2880,"ply":2881,"ww":2882,"ef":2883,"10":2884,"sy":2885,"ph":2886,"Is":2887,"bs":2888,"wikipedia":2889,"count":2890,"long":2891,"expl":2892,"pub":2893,"\"\".":2894,"those":2895,"content":2896,"That":2897,"before":2898,"cess":2899,"par":2900,"ON":2901,"beli":2902,"St":2903,"state":2904,"What":2905,"bit":2906,"writ":2907,"sure":2908,"place":2909,"issu":2910,"aph":2911,"An":2912,"clear":2913,"wn":2914,"Se":2915,"copy":2916,"ref":2917,"reli":2918,"DI":2919,"ttp":2920,"://":2921,"ten":2922,"blocked":2923,"http":2924,"claim":2925,"going":2926,"too":2927,"Wiki":2928,"year":2929,"AL":2930,"crit":2931,"ility":2932,"sign":2933,"after":2934,"someone":2935,"mon":2936,"FUCK":2937,"bi":2938,"two":2939,".\"\"":2940,"agree":2941,"But":2942,"though":2943,"wiki":2944,"still":2945,"cit":2946,"llow":2947,"image":2948,"org":2949,"free":2950,"using":2951,"side":2952,"ress":2953,"said":2954,"inv":2955,"since":2956,"Do":2957,"something":2958,"proble":2959,"inter":2960,"mar":2961,"Un":2962,"ics":2963,"rel":2964,"Ho":2965,"text":2966,"rect":2967,"ased":2968,"show":2969,"eve":2970,"Hi":2971,"sing":2972,"PO":2973,"UTC":2974,"mention":2975,"subject":2976,"without":2977,"main":2978,"bl":2979,"pon":2980,"IT":2981,"tain":2982,"contin":2983,"added":2984,"interest":2985,"mean":2986,"Go":2987,"IP":2988,"ative":2989,"ied":2990,"take":2991,"ense":2992,"ments":2993,"ought":2994,"real":2995,"line":2996,"ven":2997,"correct":2998,"non":2999,"editors":3000,"might":3001,"understand":3002,"ines":3003,"inst":3004,"br":3005,"cho":3006,"col":3007,"12":3008,"wever":3009,"removed":3010,"stop":3011,"appe":3012,"start":3013,"led":3014,"question":3015,"case":3016,"ars":3017,"got":3018,"ggest":3019,"yourself":3020,"pect":3021,"done":3022,"Con":3023,"doesn":3024,"ably":3025,"vious":3026,"NO":3027,"ban":3028,"personal":3029,"Your":3030,"ff":3031,"leg":3032,"spec":3033,"zz":3034,"search":3035,"HA":3036,"ove":3037,"ident":3038,"ES":3039,"suggest":3040,"US":3041,"User":3042,"ency":3043,"ily":3044,"tri":3045,"Be":3046,"irect":3047,"ards":3048,"keep":3049,"mess":3050,"De":3051,"follow":3052,"box":3053,"orig":3054,"feel":3055,"ular":3056,"includ":3057,"never":3058,"history":3059,"better":3060,"How":3061,"For":3062,"another":3063,"origin":3064,"appro":3065,"links":3066,"ready":3067,"18":3068,"ned":3069,"tern":3070,"she":3071,"num":3072,"nn":3073,"note":3074,"believe":3075,"Pro":3076,"mem":3077,"vers":3078,"seems":3079,"aa":3080,"ves":3081,"rat":3082,"dy":3083,"os":3084,"ational":3085,"??":3086,"speed":3087,"check":3088,"giv":3089,"sum":3090,"cour":3091,"pa":3092,"ral":3093,"anything":3094,"ider":3095,"wel":3096,"14":3097,"val":3098,"ically":3099,"gener":3100,"LO":3101,"ult":3102,"things":3103,"tle":3104,"lect":3105,"present":3106,"cord":3107,"\"\",":3108,"request":3109,"hope":3110,"found":3111,"respon":3112,"copyright":3113,"wer":3114,"THE":3115,"Im":3116,"fair":3117,"comments":3118,"str":3119,"kes":3120,"support":3121,"opin":3122,"policy":3123,"ample":3124,"change":3125,"against":3126,"13":3127,"ever":3128,"IG":3129,"ys":3130,"pen":3131,"cond":3132,"POV":3133,"wrong":3134,"15":3135,"ists":3136,"ft":3137,"already":3138,"didn":3139,"nam":3140,"vandalism":3141,"won":3142,"Eng":3143,"rele":3144,"editor":3145,"explain":3146,"tit":3147,"both":3148,"Com":3149,"ither":3150,"FA":3151,"argu":3152,"yy":3153,"old":3154,"current":3155,"land":3156,"actually":3157,"play":3158,"ability":3159,"ull":3160,"WW":3161,"review":3162,"ize":3163,"mit":3164,"ferent":3165,"head":3166,"ah":3167,"comp":3168,"problem":3169,"care":3170,"while":3171,"sent":3172,"My":3173,"sul":3174,"guide":3175,"different":3176,"remove":3177,"welcome":3178,"exper":3179,"Also":3180,"::":3181,"~~":3182,"llo":3183,"unt":3184,"ways":3185,"descri":3186,"else":3187,"import":3188,"ians":3189,"others":3190,"possi":3191,"ING":3192,"encyclo":3193,"Why":3194,"trying":3195,"rough":3196,"account":3197,"above":3198,"little":3199,"imes":3200,"consider":3201,"graph":3202,"example":3203,"few":3204,"tell":3205,"public":3206,"last":3207,"az":3208,"jo":3209,"reliable":3210,"oks":3211,"down":3212,"sol":3213,"nothing":3214,"great":3215,"fi":3216,"issue":3217,"defin":3218,"orry":3219,"oup":3220,"17":3221,"must":3222,"accept":3223,"partic":3224,"adding":3225,"lot":3226,"ude":3227,"ensus":3228,"ings":3229,"fl":3230,"ateg":3231,"discuss":3232,"comple":3233,"__":3234,"vo":3235,"cial":3236,"give":3237,"lete":3238,"years":3239,"questions":3240,"16":3241,"making":3242,"Amer":3243,"conf":3244,"angu":3245,"prom":3246,"anyone":3247,"book":3248,"vis":3249,"through":3250,"lines":3251,"tic":3252,"load":3253,"prob":3254,"doing":3255,"rather":3256,"thought":3257,"Americ":3258,"big":3259,"ath":3260,"matter":3261,"ater":3262,"OR":3263,"vide":3264,"reference":3265,"ME":3266,"continue":3267,"New":3268,"og":3269,"sense":3270,"far":3271,"ted":3272,"Can":3273,"ify":3274,"ran":3275,"ship":3276,"24":3277,"lead":3278,"write":3279,"To":3280,"world":3281,"says":3282,"report":3283,"speedy":3284,"Ad":3285,"posed":3286,"address":3287,"erial":3288,"group":3289,"AS":3290,"webs":3291,"ale":3292,"....":3293,"site":3294,"langu":3295,"urther":3296,"LL":3297,"material":3298,"created":3299,"high":3300,"plac":3301,"least":3302,"English":3303,"idence":3304,"ately":3305,"produ":3306,"ution":3307,"fect":3308,"best":3309,"body":3310,"references":3311,"nor":3312,"cu":3313,"ild":3314,"certain":3315,"isn":3316,"called":3317,"times":3318,"original":3319,"ged":3320,"However":3321,"On":3322,"mor":3323,"const":3324,"ween":3325,"vant":3326,"ith":3327,"ead":3328,"etc":3329,"inde":3330,"simply":3331,"probably":3332,"SH":3333,"www":3334,"ake":3335,"exist":3336,"Mo":3337,"sur":3338,"recent":3339,"und":3340,"leave":3341,"appropri":3342,"test":3343,"regard":3344,"notable":3345,"consensus":3346,"thor":3347,"criter":3348,"either":3349,"opinion":3350,"Not":3351,"char":3352,"enough":3353,"=\"\"":3354,"around":3355,"bad":3356,"delete":3357,"life":3358,"users":3359,"templ":3360,"written":3361,"ided":3362,"seem":3363,"requ":3364,"between":3365,"Hello":3366,"They":3367,"order":3368,"io":3369,"reverted":3370,"Just":3371,"!!!!!!!!!!!!!!!!":3372,"row":3373,"date":3374,"specific":3375,"fam":3376,"mind":3377,"sit":3378,"ss":3379,"kind":3380,"trans":3381,"cr":3382,"har":3383,"research":3384,"22":3385,"impro":3386,"mary":3387,"Image":3388,"version":3389,"concer":3390,"attack":3391,"logy":3392,"Mar":3393,"important":3394,"als":3395,"sty":3396,"commun":3397,"atch":3398,"info":3399,"pict":3400,"contributions":3401,"ents":3402,"appropriate":3403,"contro":3404,"ken":3405,"''''":3406,"viol":3407,"shit":3408,"needs":3409,"ention":3410,"Fe":3411,"dec":3412,"acks":3413,"title":3414,"move":3415,"ash":3416,"message":3417,"LE":3418,"TO":3419,"SUCK":3420,"pose":3421,"complete":3422,"prov":3423,"allow":3424,"la":3425,"tur":3426,"term":3427,"relevant":3428,"invol":3429,"ited":3430,"evidence":3431,"haps":3432,"sex":3433,"FF":3434,"HAHA":3435,"ese":3436,"CO":3437,"true":3438,"notice":3439,"ground":3440,"EN":3441,"number":3442,"member":3443,"ures":3444,"direct":3445,"images":3446,"Chr":3447,"hand":3448,"ger":3449,"Jo":3450,"hether":3451,"23":3452,"encyclopedia":3453,"ID":3454,"given":3455,"err":3456,"language":3457,"UN":3458,"sci":3459,"second":3460,"having":3461,"lar":3462,"ins":3463,"coun":3464,"upload":3465,"bu":3466,"administ":3467,"possible":3468,"website":3469,"ified":3470,"clearly":3471,"All":3472,"Bo":3473,"yet":3474,"saying":3475,"style":3476,"ner":3477,"fri":3478,"quite":3479,"See":3480,"net":3481,"chool":3482,"polit":3483,"always":3484,"wee":3485,"ruct":3486,"ration":3487,"bre":3488,"ext":3489,"criteria":3490,"obvious":3491,"WI":3492,"ute":3493,"guidelines":3494,"jor":3495,"Or":3496,"Ed":3497,"May":3498,"por":3499,"hard":3500,"words":3501,"Any":3502,"AND":3503,"light":3504,"ized":3505,"ton":3506,"ED":3507,"known":3508,"pare":3509,"offic":3510,"Ro":3511,"utral":3512,"sm":3513,"veral":3514,"ail":3515,"sidered":3516,"ters":3517,"author":3518,"considered":3519,"lished":3520,"qual":3521,"based":3522,"mail":3523,"pop":3524,"whether":3525,"makes":3526,"disput":3527,"listed":3528,".\"":3529,"stud":3530,"Man":3531,"ities":3532,"AR":3533,"fil":3534,"ug":3535,"changes":3536,"dist":3537,"project":3538,"preci":3539,"pho":3540,"bas":3541,"ption":3542,"tempt":3543,"further":3544,"until":3545,"bers":3546,"tail":3547,"fully":3548,"left":3549,"warning":3550,"position":3551,"cannot":3552,"instead":3553,"Af":3554,"course":3555,"friend":3556,"idea":3557,"ush":3558,"prote":3559,"several":3560,"wish":3561,"particular":3562,"Jew":3563,"eng":3564,"related":3565,"RA":3566,";=":3567,"air":3568,"mentioned":3569,"oc":3570,"25":3571,"AB":3572,"means":3573,"Some":3574,"uff":3575,"ote":3576,"media":3577,"happen":3578,"came":3579,"eas":3580,"uy":3581,"stat":3582,"each":3583,"tru":3584,"GO":3585,"var":3586,"NOT":3587,"Che":3588,"resul":3589,"ature":3590,"cas":3591,"usion":3592,"following":3593,"yes":3594,"anti":3595,"Bar":3596,"den":3597,"topic":3598,"cle":3599,"ised":3600,"CH":3601,"proper":3602,"Sh":3603,"thanks":3604,"bro":3605,"cap":3606,"entire":3607,"whole":3608,"organ":3609,"pg":3610,"appreci":3611,"pup":3612,"rules":3613,"exp":3614,"Ind":3615,"statement":3616,"create":3617,"ness":3618,"Ex":3619,"Well":3620,"pur":3621,"facts":3622,"three":3623,"agr":3624,"000":3625,"template":3626,"sed":3627,"detail":3628,"Le":3629,"seen":3630,"major":3631,"Artic":3632,"law":3633,"attempt":3634,"ategory":3635,"Pe":3636,"CT":3637,"class":3638,"pli":3639,"include":3640,"days":3641,"histor":3642,"Ger":3643,"set":3644,"once":3645,"fort":3646,"issues":3647,"diff":3648,"rid":3649,"IGG":3650,"Ag":3651,"ones":3652,"ended":3653,"!!!":3654,"mist":3655,"accur":3656,"Brit":3657,"bal":3658,"placed":3659,"loc":3660,"uring":3661,"fun":3662,"ries":3663,"neutral":3664,"open":3665,"fix":3666,"general":3667,"2005":3668,"OO":3669,"gin":3670,"acy":3671,"administrat":3672,"puppe":3673,"nomin":3674,"American":3675,"national":3676,"knowled":3677,"Reg":3678,"lling":3679,"ham":3680,"ALL":3681,"car":3682,"na":3683,"ilar":3684,"}}":3685,"dou":3686,"Christ":3687,"run":3688,"photo":3689,"vel":3690,"Now":3691,"four":3692,"199":3693,"band":3694,"Per":3695,"sock":3696,"names":3697,"ord":3698,"including":3699,"Don":3700,"rup":3701,"cially":3702,"sentence":3703,"cording":3704,".)":3705,"short":3706,"indic":3707,"pend":3708,"necess":3709,"provide":3710,"aaaa":3711,"parent":3712,"Here":3713,"myself":3714,"respect":3715,"Co":3716,"action":3717,"bio":3718,"jpg":3719,"charac":3720,"ward":3721,"away":3722,"ount":3723,"uro":3724,"def":3725,"exact":3726,"changed":3727,"NIGG":3728,"syst":3729,"rad":3730,"common":3731,"cred":3732,"hum":3733,"sha":3734,"lack":3735,"web":3736,"full":3737,"ivers":3738,"sorry":3739,"Fuck":3740,"mus":3741,"ST":3742,"ns":3743,"watch":3744,"IC":3745,"accus":3746,"uation":3747,"vice":3748,"When":3749,"included":3750,"answer":3751,"appear":3752,"zzzz":3753,"NIGGER":3754,"yyyy":3755,"sourced":3756,"men":3757,"ago":3758,"tro":3759,"ony":3760,"ories":3761,"tty":3762,"AM":3763,"fag":3764,"{{":3765,"process":3766,"apo":3767,"lock":3768,"Nor":3769,"ping":3770,"ina":3771,"getting":3772,"haha":3773,"news":3774,"nnnn":3775,"Sp":3776,"100":3777,"serious":3778,"school":3779,"GA":3780,"writing":3781,"started":3782,"uyuy":3783,"worth":3784,"rote":3785,"agraph":3786,"fal":3787,"outh":3788,"auto":3789,"tyty":3790,"OF":3791,"SE":3792,"MY":3793,"ler":3794,"wrote":3795,"notic":3796,"fer":3797,"ik":3798,"ator":3799,"past":3800,"paragraph":3801,"Qu":3802,"bar":3803,"ye":3804,"soci":3805,"month":3806,"bor":3807,"prof":3808,"stay":3809,"moron":3810,"faith":3811,"GE":3812,"meet":3813,"summary":3814,"2006":3815,"interested":3816,"official":3817,"mi":3818,"however":3819,"Yes":3820,"ides":3821,"ank":3822,"pass":3823,"previous":3824,"taken":3825,"improve":3826,"claims":3827,"respond":3828,"sort":3829,"deal":3830,"30":3831,"stuff":3832,"later":3833,"similar":3834,"wise":3835,"ait":3836,"plain":3837,"ird":3838,"color":3839,"sert":3840,"removing":3841,"Ser":3842,"War":3843,"wanted":3844,"AD":3845,"Lo":3846,"MO":3847,"attacks":3848,"love":3849,"ili":3850,"suck":3851,"rupt":3852,"picture":3853,"object":3854,"contribs":3855,"sc":3856,"One":3857,"ze":3858,"kill":3859,"appears":3860,"gram":3861,"knowledge":3862,"1111":3863,"ising":3864,"beha":3865,"looking":3866,"involved":3867,"power":3868,"ames":3869,"quot":3870,"vent":3871,"regarding":3872,"gover":3873,"Po":3874,"ctions":3875,"repe":3876,"cover":3877,"ARE":3878,"next":3879,"Hey":3880,"critic":3881,"itself":3882,"Joh":3883,"ross":3884,"dom":3885,"hate":3886,"relig":3887,"currently":3888,"refer":3889,"uss":3890,"Me":3891,"background":3892,"false":3893,"rom":3894,"behavi":3895,"gn":3896,"community":3897,"gay":3898,"within":3899,"cult":3900,"maybe":3901,"Pol":3902,"WWWW":3903,"del":3904,"dont":3905,"books":3906,"country":3907,"fail":3908,"ield":3909,"single":3910,"espe":3911,"ently":3912,"addition":3913,"ifi":3914,"published":3915,"ization":3916,"hold":3917,"notability":3918,"edited":3919,"policies":3920,"child":3921,"upid":3922,"Ne":3923,"50":3924,"rac":3925,"bed":3926,"especially":3927,"states":3928,"record":3929,"Sorry":3930,"ference":3931,"ling":3932,"LI":3933,"mber":3934,"vil":3935,"bus":3936,"VE":3937,"completely":3938,"uture":3939,"andbox":3940,"hon":3941,"WH":3942,"ange":3943,"cing":3944,"signific":3945,"reading":3946,"ogle":3947,"ball":3948,"sound":3949,"nment":3950,"represent":3951,"Project":3952,"cide":3953,"everyone":3954,"Li":3955,"ision":3956,"explan":3957,"ible":3958,"protect":3959,"pretty":3960,"argument":3961,"oun":3962,"intro":3963,"truth":3964,"bot":3965,"SHIT":3966,"certainly":3967,"At":3968,"pat":3969,"likely":3970,"hour":3971,"len":3972,"entry":3973,"deb":3974,"ulti":3975,"que":3976,"tot":3977,"disagree":3978,"____":3979,"RO":3980,"2007":3981,"stupid":3982,"week":3983,"itions":3984,"sho":3985,"medi":3986,"fucking":3987,"zer":3988,"ring":3989,"hy":3990,"ification":3991,"guess":3992,"working":3993,"Good":3994,"during":3995,"wasn":3996,"ital":3997,"perhaps":3998,"ps":3999,"asked":4000,"By":4001,"oid":4002,"atever":4003,"uses":4004,"Again":4005,"due":4006,"reed":4007,"quote":4008,"game":4009,"press":4010,"ron":4011,"Te":4012,"fig":4013,"below":4014,"velo":4015,"nice":4016,"plic":4017,"2008":4018,"threat":4019,"ulation":4020,"posted":4021,"John":4022,"wonder":4023,"Since":4024,"redirect":4025,"ured":4026,"Are":4027,"talking":4028,"views":4029,"useful":4030,"guy":4031,"aware":4032,"pie":4033,"bly":4034,"ilit":4035,"develo":4036,"Wikiped":4037,"noticed":4038,"iction":4039,"took":4040,"iment":4041,"Wor":4042,"ging":4043,"points":4044,"learn":4045,"meaning":4046,"ann":4047,"small":4048,"edia":4049,"comes":4050,"key":4051,"future":4052,"system":4053,"sch":4054,"eth":4055,"docu":4056,"2010":4057,"cited":4058,"ants":4059,"Oh":4060,"selves":4061,"Jun":4062,"large":4063,"United":4064,"everything":4065,"Let":4066,"21":4067,"contact":4068,"ani":4069,"DO":4070,"coming":4071,"response":4072,"necessary":4073,"ury":4074,"political":4075,"reasons":4076,"CC":4077,"ret":4078,"gar":4079,"confir":4080,"along":4081,"AA":4082,"Ju":4083,"looks":4084,"accurate":4085,"win":4086,"II":4087,"rule":4088,"Wel":4089,"joy":4090,"EDI":4091,"ane":4092,"appreciate":4093,"Euro":4094,"effect":4095,"rely":4096,"Tr":4097,"UP":4098,"British":4099,"email":4100,"pers":4101,"Ge":4102,"ai":4103,"needed":4104,"198":4105,"live":4106,"di":4107,"board":4108,"ively":4109,"ATE":4110,"valid":4111,"scient":4112,"actions":4113,"jud":4114,"today":4115,"cident":4116,"sandbox":4117,"stated":4118,"LOL":4119,"strong":4120,"cogn":4121,"dispute":4122,"ouse":4123,"remain":4124,"graphy":4125,"33":4126,"star":4127,"ural":4128,"exactly":4129,"hal":4130,"provided":4131,"oman":4132,"experi":4133,"field":4134,"often":4135,"Dis":4136,"NPOV":4137,"controver":4138,"RAP":4139,"tm":4140,"become":4141,"Spe":4142,"soon":4143,"oper":4144,"Fo":4145,"ata":4146,"Hel":4147,"aged":4148,"problems":4149,"ley":4150,"vol":4151,"rop":4152,"ivid":4153,"music":4154,"happy":4155,"hom":4156,"mission":4157,"tried":4158,"pract":4159,"bel":4160,"except":4161,"speak":4162,"reverting":4163,"Mr":4164,"status":4165,"legal":4166,"EW":4167,"She":4168,"film":4169,"ives":4170,"Pr":4171,"ax":4172,"reply":4173,"ternal":4174,"iness":4175,"ali":4176,"ared":4177,"story":4178,"Gree":4179,"lam":4180,"DIE":4181,"27":4182,"vandalize":4183,"haven":4184,"tech":4185,"Ste":4186,"deleting":4187,"subst":4188,"uc":4189,"moved":4190,"username":4191,"peri":4192,"List":4193,"thank":4194,"uploaded":4195,"remember":4196,"taking":4197,"according":4198,"continu":4199,"character":4200,"Jan":4201,"urch":4202,"saw":4203,"type":4204,"God":4205,"whatever":4206,"context":4207,"iversity":4208,"unless":4209,"administrator":4210,"ny":4211,"multi":4212,"Tur":4213,"lim":4214,"five":4215,"contain":4216,"ending":4217,"YOUR":4218,"separ":4219,"Pl":4220,"disrupt":4221,"dra":4222,"gether":4223,"banned":4224,"explanation":4225,"ived":4226,"wards":4227,"terms":4228,"job":4229,"shows":4230,"assu":4231,"description":4232,"Par":4233,"avoid":4234,"cut":4235,"obviously":4236,"government":4237,"almost":4238,"ially":4239,"actual":4240,"2004":4241,"tags":4242,"mark":4243,"UNT":4244,"emp":4245,"Fir":4246,"Get":4247,"together":4248,"Ab":4249,"alone":4250,"termin":4251,"Isra":4252,"close":4253,"resol":4254,"level":4255,"mal":4256,"conflic":4257,"definition":4258,"ont":4259,"clar":4260,"ric":4261,"although":4262,"bitch":4263,"Cheers":4264,"ividual":4265,"mm":4266,"Edit":4267,"decide":4268,"Europe":4269,"company":4270,"VER":4271,"doub":4272,"Ac":4273,"ier":4274,"pot":4275,"WikiProject":4276,"BS":4277,"ired":4278,"aren":4279,"works":4280,"aking":4281,"bum":4282,"experiment":4283,"recently":4284,"result":4285,"admins":4286,"Col":4287,"htm":4288,"biased":4289,"generally":4290,"ient":4291,"matically":4292,"40":4293,"construct":4294,"Block":4295,"TAB":4296,"gy":4297,"enjoy":4298,"allowed":4299,"cite":4300,"!!!!!!!!!!!!!!!!!!!!!!!!!!!!!!!!":4301,"CUNT":4302,"sl":4303,"told":4304,"promot":4305,"nic":4306,"file":4307,"Welcome":4308,"introdu":4309,"fine":4310,"pret":4311,"citation":4312,"expect":4313,"Pre":4314,"First":4315,"went":4316,"Russ":4317,"ror":4318,"boy":4319,"Hist":4320,"PA":4321,"nal":4322,"ery":4323,"Mus":4324,"face":4325,"themselves":4326,"individual":4327,"estab":4328,"minor":4329,"Gr":4330,"bias":4331,"plan":4332,"ION":4333,"ib":4334,"various":4335,"guys":4336,"helpful":4337,"Aug":4338,"Who":4339,"liber":4340,"En":4341,"criticism":4342,"event":4343,"logical":4344,"complain":4345,"simple":4346,"human":4347,"cam":4348,"ket":4349,"foot":4350,"ama":4351,"avail":4352,"met":4353,"Cl":4354,"mill":4355,"]]":4356,"====":4357,"attention":4358,"28":4359,"white":4360,"Gu":4361,"rece":4362,"signed":4363,"moder":4364,"dick":4365,"recogn":4366,"category":4367,"ison":4368,"Will":4369,"contributing":4370,"members":4371,"sites":4372,"song":4373,"2009":4374,"BE":4375,"WIK":4376,"Help":4377,"26":4378,"ele":4379,"ensive":4380,"omen":4381,"space":4382,"istic":4383,"sus":4384,"tom":4385,"area":4386,"particip":4387,"team":4388,"significant":4389,"serv":4390,"hours":4391,"tagged":4392,"worked":4393,"quick":4394,"ering":4395,"Of":4396,"Did":4397,"party":4398,"equ":4399,"lls":4400,"apolog":4401,"dr":4402,"longer":4403,"interesting":4404,"ica":4405,"citations":4406,"German":4407,"fav":4408,"insul":4409,"document":4410,"igno":4411,"FAG":4412,"force":4413,"death":4414,"~~~~":4415,"gl":4416,"Car":4417,"theory":4418,"ener":4419,"ety":4420,"Christian":4421,"belong":4422,"These":4423,"Act":4424,"reme":4425,"transl":4426,"uk":4427,"IM":4428,"automatically":4429,"RECT":4430,"dam":4431,"BL":4432,"product":4433,"happened":4434,"tered":4435,"anyway":4436,"''''''":4437,"Res":4438,"\"::":4439,"29":4440,"Har":4441,"ming":4442,"ites":4443,"home":4444,"mass":4445,"orial":4446,"civil":4447,"nonsense":4448,"ambig":4449,"suc":4450,"oo":4451,"REDI":4452,"With":4453,"creating":4454,"fan":4455,"ore":4456,"therefore":4457,"piece":4458,"sections":4459,"available":4460,"conv":4461,"doubt":4462,"Pers":4463,"flu":4464,"ences":4465,"supposed":4466,"accepted":4467,"wait":4468,"turn":4469,"Perhaps":4470,"half":4471,"OK":4472,"proof":4473,"himself":4474,"apan":4475,":#":4476,"Aust":4477,"mag":4478,"standard":4479,"nig":4480,"verifi":4481,"Then":4482,"consist":4483,"wid":4484,"ond":4485,"conne":4486,",\"\"":4487,"van":4488,"Ke":4489,"definite":4490,"Maybe":4491,"197":4492,"tild":4493,"ined":4494,"proposed":4495,"acceptable":4496,"FAT":4497,"TR":4498,"ream":4499,"city":4500,"clean":4501,"lat":4502,"unblock":4503,"period":4504,"itive":4505,"ben":4506,"Admin":4507,"goes":4508,"typ":4509,"tildes":4510,"Ok":4511,"HAHAHAHA":4512,"quality":4513,"prop":4514,"nder":4515,"izing":4516,"Page":4517,"ology":4518,"indicate":4519,"near":4520,"wouldn":4521,"Even":4522,"States":4523,"bring":4524,"hu":4525,"ats":4526,"idd":4527,"Mac":4528,"cir":4529,"AID":4530,"Where":4531,"rights":4532,"opinions":4533,"Article":4534,"reach":4535,"fish":4536,"While":4537,"Articles":4538,"ican":4539,");":4540,"July":4541,"width":4542,"IL":4543,"fortun":4544,"Jewish":4545,"ney":4546,"months":4547,"umb":4548,"mic":4549,"ster":4550,"solute":4551,"family":4552,"REDIRECT":4553,"multiple":4554,"BO":4555,"UK":4556,"iot":4557,"statements":4558,"Take":4559,"unch":4560,"contest":4561,"gets":4562,"Dr":4563,"JEW":4564,"aj":4565,"among":4566,"196":4567,"honest":4568,"science":4569,".,":4570,"album":4571,"ession":4572,"Mon":4573,"fight":4574,"\"\"?":4575,"violation":4576,"begin":4577,"incorrect":4578,"concept":4579,"itch":4580,"Feb":4581,"Japan":4582,"August":4583,"gs":4584,"prove":4585,"ris":4586,"advert":4587,"independ":4588,"living":4589,"indeed":4590,"CE":4591,"map":4592,"upon":4593,"error":4594,"debate":4595,"sk":4596,"heard":4597,"suff":4598,"World":4599,"vision":4600,"Request":4601,"King":4602,"elect":4603,"concl":4604,"anda":4605,"apparent":4606,"schol":4607,"usually":4608,"mom":4609,"phr":4610,"wo":4611,"third":4612,"faggot":4613,"bur":4614,"mother":4615,"series":4616,"situation":4617,"ilitary":4618,"99":4619,"Cor":4620,"push":4621,"OH":4622,"TW":4623,"behavior":4624,"wide":4625,"After":4626,"ANK":4627,"details":4628,"Canad":4629,"feat":4630,"ying":4631,"ignor":4632,"ste":4633,"Sty":4634,"separate":4635,"design":4636,"explaining":4637,"comput":4638,"video":4639,"born":4640,"conflict":4641,"epis":4642,"fac":4643,"vot":4644,"repeated":4645,"His":4646,"alleg":4647,"sad":4648,"step":4649,"imate":4650,"shouldn":4651,"puppet":4652,"HATE":4653,"Jews":4654,"otherwise":4655,"table":4656,"purpose":4657,"Have":4658,"Fran":4659,"build":4660,"understanding":4661,"anal":4662,"ons":4663,"hind":4664,"Sy":4665,"ional":4666,"ices":4667,"pill":4668,"activ":4669,"dest":4670,"absolute":4671,"couple":4672,"National":4673,"leng":4674,"terror":4675,"thus":4676,"LA":4677,"aving":4678,"asking":4679,"liter":4680,"poor":4681,"deser":4682,"rationale":4683,"Su":4684,"linked":4685,"vote":4686,"bes":4687,"abor":4688,"SO":4689,"calling":4690,"Sep":4691,"border":4692,"TV":4693,"data":4694,"neg":4695,"lier":4696,"80":4697,"via":4698,"historical":4699,"ribut":4700,"PIG":4701,"uary":4702,"vir":4703,"cal":4704,"messages":4705,"aaaaaaaa":4706,"Style":4707,"RS":4708,"directly":4709,"assert":4710,"program":4711,"px":4712,"pic":4713,"THIS":4714,"Add":4715,"existing":4716,"produce":4717,"Category":4718,"Sm":4719,"famili":4720,"utes":4721,"warring":4722,"Dav":4723,"sible":4724,"Ye":4725,"difference":4726,"hear":4727,"Am":4728,"Ob":4729,"Other":4730,"Does":4731,"March":4732,"blocking":4733,"creation":4734,"assume":4735,"aster":4736,"limit":4737,"Note":4738,"[[":4739,"plied":4740,"FUCKING":4741,"harass":4742,"yyyyyyyy":4743,"Bro":4744,"Fin":4745,"alth":4746,"FUCKFUCK":4747,"lent":4748,"invest":4749,"lled":4750,"ances":4751,"nnnnnnnn":4752,"external":4753,"prefer":4754,"2012":4755,"meant":4756,"oney":4757,"uyuyuyuy":4758,"described":4759,"WIKIP":4760,"Manual":4761,"tar":4762,"align":4763,"hell":4764,"perfect":4765,"contribute":4766,"control":4767,"**":4768,"jour":4769,"movi":4770,"CRAP":4771,"zzzzzzzz":4772,"spam":4773,"lies":4774,"tytytyty":4775,"WIKIPEDI":4776,"FD":4777,"drop":4778,"ker":4779,"ni":4780,"Could":4781,"cha":4782,"contr":4783,"cast":4784,"sat":4785,"rench":4786,"India":4787,"attle":4788,"Oc":4789,"ential":4790,"require":4791,"hit":4792,"Islam":4793,"countries":4794,"categ":4795,"iss":4796,"amount":4797,"Because":4798,"scientific":4799,"AIDS":4800,"ague":4801,"aud":4802,"expand":4803,"develop":4804,"inclusion":4805,"eli":4806,"special":4807,"diffic":4808,"June":4809,"hor":4810,"black":4811,"Bl":4812,"admit":4813,"Ph":4814,"bri":4815,"html":4816,"From":4817,"gre":4818,"University":4819,"lid":4820,"dri":4821,"Mic":4822,"ene":4823,"irl":4824,"Quest":4825,"cases":4826,"utorial":4827,"changing":4828,"EL":4829,"social":4830,"extreme":4831,"idiot":4832,"culture":4833,"iding":4834,"reported":4835,"CRAPCRAP":4836,"(~~~~":4837,"45":4838,"fill":4839,"COCK":4840,"sen":4841,"coll":4842,"giving":4843,"History":4844,"sequ":4845,"pillars":4846,"business":4847,"ya":4848,"release":4849,"decl":4850,"Wik":4851,"early":4852,"disruptive":4853,"SP":4854,"gan":4855,"treat":4856,"determin":4857,"decided":4858,"scre":4859,"definitely":4860,"pet":4861,"Pa":4862,"constructive":4863,"South":4864,"gave":4865,"January":4866,"cuse":4867,"lege":4868,"IST":4869,"WIKIPEDIA":4870,"looked":4871,"MA":4872,"mand":4873,"phys":4874,"EST":4875,"Israel":4876,"earlier":4877,"2011":4878,"Afr":4879,"cock":4880,"legit":4881,"online":4882,"primary":4883,"ga":4884,"arguments":4885,"groups":4886,"????":4887,"propos":4888,"modern":4889,"Sim":4890,"pun":4891,"55":4892,"night":4893,"discussed":4894,"active":4895,"personally":4896,"uni":4897,"named":4898,"Austral":4899,"Tem":4900,"mine":4901,"Rf":4902,"Feel":4903,"Wikipedian":4904,"cra":4905,"resto":4906,"Arab":4907,"reasonable":4908,"particularly":4909,"Greek":4910,"fall":4911,"erous":4912,"focus":4913,"reader":4914,"thinking":4915,"More":4916,"specifically":4917,"11111111":4918,"numbers":4919,"seriously":4920,"ode":4921,"Republic":4922,"referenced":4923,"Em":4924,"RR":4925,"constit":4926,"OM":4927,"replace":4928,"educ":4929,"willing":4930,"Naz":4931,"acade":4932,"concerns":4933,"dated":4934,"outside":4935,"appy":4936,"60":4937,"verifiable":4938,"former":4939,"none":4940,"ister":4941,"popular":4942,"mous":4943,"tra":4944,"readers":4945,"Ma":4946,"verse":4947,"mun":4948,"thern":4949,"augh":4950,"inci":4951,"spo":4952,"conom":4953,"decision":4954,"takes":4955,"majority":4956,"access":4957,"ado":4958,"fortunately":4959,"towards":4960,"propag":4961,"Would":4962,"vered":4963,"entirely":4964,"Apri":4965,"ceding":4966,"Google":4967,"mistake":4968,"Ap":4969,"leading":4970,"April":4971,"ethnic":4972,"associ":4973,"dead":4974,"Cent":4975,"abuse":4976,"Contri":4977,"plies":4978,"unsigned":4979,"sial":4980,"friends":4981,"LOCK":4982,"reflect":4983,"million":4984,"-)":4985,"tool":4986,"ished":4987,"pictures":4988,"Further":4989,"shall":4990,"WWWWWWWW":4991,"ales":4992,"altern":4993,"kept":4994,"standards":4995,"relation":4996,"70":4997,"BC":4998,"ork":4999,"merely":5000,"irrelevant":5001,"ILL":5002,"wants":5003,"demon":5004,"internet":5005,"penis":5006,"figure":5007,"ferences":5008,"Iran":5009,"chance":5010,"Best":5011,"cop":5012,"chan":5013,"86":5014,"break":5015,"UR":5016,"posting":5017,"benef":5018,"gress":5019,"Anyway":5020,"DY":5021,"nat":5022,"pay":5023,"iddle":5024,"Roman":5025,"Dece":5026,"Mc":5027,"town":5028,"organization":5029,"totally":5030,"aid":5031,"nstar":5032,"match":5033,"events":5034,"putting":5035,"population":5036,"DE":5037,"trad":5038,"Jes":5039,"hes":5040,"lying":5041,"0000":5042,"stra":5043,"covered":5044,"stub":5045,"edon":5046,"tober":5047,"lost":5048,"mot":5049,"Delet":5050,"influ":5051,"forward":5052,"December":5053,"antly":5054,"FOR":5055,"across":5056,"cell":5057,"Stop":5058,"48":5059,"Fair":5060,"fit":5061,"ament":5062,"interpret":5063,"assum":5064,"roy":5065,"arily":5066,"ulous":5067,"posts":5068,"Jim":5069,"lt":5070,"club":5071,"pite":5072,"tember":5073,"lists":5074,"Arch":5075,"01":5076,"rand":5077,"gives":5078,"ASS":5079,"NA":5080,"cum":5081,"'.":5082,"immedi":5083,"UU":5084,"advice":5085,"sym":5086,"ana":5087,"North":5088,"inappropriate":5089,"olic":5090,"children":5091,"October":5092,"cand":5093,"military":5094,"ses":5095,"ark":5096,"solid":5097,"prevent":5098,"ered":5099,"pointed":5100,"ensor":5101,"encycloped":5102,"sto":5103,"\"\"|":5104,"America":5105,"highly":5106,"Bas":5107,"PS":5108,"pression":5109,"Nove":5110,"CAN":5111,"Happy":5112,"ires":5113,"lie":5114,"sucks":5115,"absolutely":5116,"duct":5117,"experience":5118,"independent":5119,"familiar":5120,"letter":5121,"requesting":5122,"gone":5123,"init":5124,"Regard":5125,"FC":5126,"AG":5127,"wing":5128,"tre":5129,"belief":5130,"concern":5131,"Look":5132,"David":5133,"90":5134,"moment":5135,"September":5136,"plate":5137,"trou":5138,"Bark":5139,"infobox":5140,"\"==":5141,"rict":5142,")\"":5143,"cript":5144,"Second":5145,"31":5146,"rant":5147,"ESS":5148,"surpr":5149,"ix":5150,"importance":5151,"religion":5152,"behind":5153,"spect":5154,"Vandal":5155,"knows":5156,"summar":5157,"ime":5158,"ko":5159,"enced":5160,"HO":5161,"mistak":5162,"religious":5163,"Ir":5164,"bul":5165,"ried":5166,"male":5167,"November":5168,"gest":5169,"reet":5170,"google":5171,"apply":5172,"evol":5173,"Regards":5174,"77":5175,"vertical":5176,"flag":5177,"investig":5178,"success":5179,"lex":5180,"tests":5181,"properly":5182,"People":5183,"?)":5184,"explained":5185,"examples":5186,"Inter":5187,"'''":5188,"computer":5189,"File":5190,"cient":5191,"spa":5192,"nel":5193,"Most":5194,"IR":5195,"Sco":5196,"Red":5197,"suit":5198,"sometimes":5199,"Part":5200,"sett":5201,"super":5202,"shot":5203,"supported":5204,"AfD":5205,"controversial":5206,"local":5207,"Ant":5208,"century":5209,"protected":5210,"confirm":5211,"ald":5212,"shown":5213,"noted":5214,"templates":5215,"fund":5216,"administrators":5217,"MM":5218,"igh":5219,"cool":5220,"bert":5221,"easy":5222,"intention":5223,"News":5224,"Great":5225,"voc":5226,"discussions":5227,"easily":5228,"estern":5229,"Many":5230,"Sha":5231,"Under":5232,"regards":5233,"Every":5234,"Her":5235,"):":5236,"mad":5237,"meth":5238,"ruary":5239,"possibly":5240,"ahead":5241,"removal":5242,"results":5243,"apparently":5244,"WANK":5245,"cup":5246,"ges":5247,"missing":5248,"basis":5249,"anim":5250,"played":5251,"erring":5252,"Cro":5253,"crat":5254,"arbit":5255,"happ":5256,"vari":5257,"nomination":5258,"suspect":5259,"sme":5260,"WANKER":5261,"accounts":5262,"York":5263,"Hope":5264,"recomm":5265,"cise":5266,"final":5267,"February":5268,"French":5269,"hey":5270,"ka":5271,"________":5272,"women":5273,"El":5274,"Mer":5275,"publish":5276,"fat":5277,"host":5278,"irth":5279,"cies":5280,"State":5281,"profession":5282,"total":5283,"ination":5284,"hilo":5285,"weeks":5286,"76":5287,"rate":5288,"forum":5289,"teach":5290,"China":5291,"believ":5292,"weight":5293,"WILL":5294,"difficult":5295,"rian":5296,"Inst":5297,"claimed":5298,"Its":5299,"Pri":5300,"assho":5301,"ford":5302,"illy":5303,"mur":5304,"ump":5305,"argue":5306,"oud":5307,"ends":5308,"75":5309,"Should":5310,"08":5311,"bey":5312,"perform":5313,"BLP":5314,"wording":5315,"court":5316,"money":5317,"ino":5318,"notes":5319,"favor":5320,"front":5321,"ators":5322,"graphies":5323,"Ital":5324,"68":5325,"TS":5326,"Cop":5327,"license":5328,"speedily":5329,"required":5330,"established":5331,"Indian":5332,"sis":5333,"03":5334,"wik":5335,"?!":5336,"Ear":5337,"KE":5338,"Ver":5339,"index":5340,"69":5341,"priv":5342,"paper":5343,"join":5344,"select":5345,"incident":5346,"icking":5347,"DON":5348,"amp":5349,"Church":5350,"effort":5351,"base":5352,"girl":5353,"visit":5354,"LY":5355,"nature":5356,"sof":5357,"paign":5358,"expert":5359,"ridic":5360,"games":5361,"eder":5362,"(~~~~);":5363,"Cath":5364,"newspa":5365,"Pres":5366,"occur":5367,"Yeah":5368,"div":5369,"asing":5370,"moving":5371,"BALL":5372,"Vi":5373,"SA":5374,"pain":5375,"prior":5376,"luck":5377,"lip":5378,"god":5379,"vio":5380,"???":5381,"satis":5382,"print":5383,"approach":5384,"format":5385,"Char":5386,"BUT":5387,"Min":5388,"sw":5389,"excl":5390,"disambig":5391,"inese":5392,"Mal":5393,"rain":5394,"father":5395,"ANI":5396,"describe":5397,"insert":5398,"places":5399,"study":5400,"06":5401,"Tutorial":5402,"sal":5403,"conduct":5404,"BU":5405,"ather":5406,"demonstr":5407,"{|":5408,"PR":5409,"bother":5410,"loy":5411,"contribution":5412,"crimin":5413,"meets":5414,"negative":5415,"sco":5416,"ues":5417,"capital":5418,"encour":5419,"struct":5420,"vict":5421,"value":5422,"sexual":5423,"|-":5424,"usage":5425,"journal":5426,"promise":5427,"Mor":5428,"concerned":5429,"Preceding":5430,"propaganda":5431,"ideas":5432,"Getting":5433,"HE":5434,"stream":5435,"warnings":5436,"discussing":5437,"Macedon":5438,"bottom":5439,"wondering":5440,"35":5441,"bing":5442,"hesit":5443,"econom":5444,"movie":5445,"han":5446,"2013":5447,"blood":5448,"censor":5449,"house":5450,"BIT":5451,"die":5452,"suggestion":5453,"basic":5454,"suffic":5455,"encyclopedic":5456,"36":5457,"presented":5458,"compan":5459,"late":5460,"season":5461,"adv":5462,"trust":5463,"released":5464,"ceed":5465,"neither":5466,"THAT":5467,"comb":5468,"suggested":5469,"pir":5470,"guideline":5471,"onymous":5472,"hahahaha":5473,"vs":5474,"water":5475,"service":5476,"ullshit":5477,"types":5478,"BALLS":5479,"appreciated":5480,"phrase":5481,"Jesus":5482,"became":5483,"trouble":5484,"intended":5485,"Sw":5486,"West":5487,"ouch":5488,"parts":5489,"ipple":5490,"James":5491,"couldn":5492,"racist":5493,"School":5494,"range":5495,"hiloso":5496,"crap":5497,"asshole":5498,"Ber":5499,"nation":5500,"itude":5501,"KK":5502,"pan":5503,"ignore":5504,"episode":5505,"fixed":5506,"acting":5507,"GOT":5508,"Russian":5509,"cunt":5510,"manner":5511,"referring":5512,"incre":5513,"seeing":5514,"ousand":5515,"wers":5516,"blog":5517,"factual":5518,"tho":5519,"stri":5520,"commit":5521,"fre":5522,"unk":5523,"php":5524,"nominated":5525,"legitimate":5526,"licens":5527,"mostly":5528,"brought":5529,"ube":5530,"previously":5531,"quotes":5532,"Media":5533,"anymore":5534,"Actually":5535,"Black":5536,"cat":5537,"asc":5538,"spelling":5539,"05":5540,"44":5541,"BLOCK":5542,"HT":5543,"submit":5544,"protection":5545,"sounds":5546,"hypo":5547,"size":5548,"huge":5549,"da":5550,"exists":5551,"behaviour":5552,"LD":5553,"WE":5554,"kid":5555,"miss":5556,"dates":5557,"lin":5558,"02":5559,"IV":5560,"characters":5561,"Cy":5562,"demo":5563,"Sup":5564,"tee":5565,"mes":5566,"pas":5567,"method":5568,"yours":5569,"2014":5570,"regist":5571,"38":5572,"round":5573,"sn":5574,"achi":5575,"istan":5576,"grad":5577,"showing":5578,"Des":5579,"topics":5580,"High":5581,"telling":5582,"llig":5583,"despite":5584,"Serb":5585,"ee":5586,"anc":5587,"agreed":5588,"cret":5589,"Although":5590,"repeatedly":5591,"Ano":5592,"joke":5593,"received":5594,"Sch":5595,"train":5596,"lection":5597,"till":5598,"ridiculous":5599,"psy":5600,"ening":5601,"depend":5602,"speaking":5603,"Template":5604,"09":5605,"thread":5606,"ifies":5607,"Read":5608,"scholar":5609,"Dear":5610,"Right":5611,"Common":5612,"techn":5613,"categories":5614,"eat":5615,"cel":5616,"reviewed":5617,"candid":5618,"advertising":5619,"SS":5620,"ech":5621,"chal":5622,"Ben":5623,"dog":5624,"somewhere":5625,"contributors":5626,"immediately":5627,"gas":5628,"checking":5629,"imag":5630,"compar":5631,"!)":5632,"aut":5633,"accusations":5634,"xy":5635,"Turk":5636,"blat":5637,"versions":5638,"thousand":5639,"fool":5640,"birth":5641,"gun":5642,"role":5643,"track":5644,"04":5645,"Off":5646,"bility":5647,"gree":5648,"hur":5649,"LOLO":5650,"Chinese":5651,"stick":5652,"movement":5653,"fairly":5654,"European":5655,"',":5656,"Deletion":5657,"evolution":5658,"39":5659,"78":5660,"aming":5661,"campaign":5662,"nobody":5663,"beyond":5664,"hesitate":5665,"Main":5666,"reput":5667,"claiming":5668,"BITCH":5669,"hael":5670,"whose":5671,"killed":5672,"controversy":5673,"broad":5674,"71":5675,"agend":5676,"GAY":5677,"3RR":5678,"refr":5679,"gon":5680,"nigger":5681,"beginning":5682,"ERE":5683,"realize":5684,"IF":5685,"princi":5686,"maintain":5687,"Commun":5688,"Like":5689,"ously":5690,"instance":5691,"dickhead":5692,"FRE":5693,"websites":5694,"leaving":5695,"academic":5696,"odd":5697,"City":5698,"tin":5699,"assist":5700,"worthy":5701,"archive":5702,"reality":5703,"Med":5704,"phy":5705,"communic":5706,"uploading":5707,"IA":5708,"orge":5709,"acos":5710,"glad":5711,"reedom":5712,"limited":5713,"knew":5714,"anish":5715,"mental":5716,"Chi":5717,"PH":5718,"San":5719,"iam":5720,"bast":5721,"involve":5722,"length":5723,"random":5724,"ulations":5725,"Questions":5726,"turned":5727,"Canada":5728,"somebody":5729,"merge":5730,"ordin":5731,"practice":5732,"COCKSUCK":5733,"happens":5734,"Another":5735,"OFF":5736,"Port":5737,"church":5738,"ource":5739,"grow":5740,"aging":5741,"okay":5742,"Japanese":5743,"brief":5744,"Vandalism":5745,"ano":5746,"spir":5747,"Copy":5748,"aspect":5749,"unsourced":5750,"DICK":5751,"authority":5752,"helpme":5753,"Paul":5754,"tend":5755,"amer":5756,"amas":5757,"Administ":5758,"34":5759,"counter":5760,"refrain":5761,"TE":5762,"moti":5763,"66":5764,"Hind":5765,"send":5766,"England":5767,"extremely":5768,"db":5769,"wan":5770,"corpor":5771,"07":5772,"NN":5773,"lots":5774,"Regarding":5775,"GG":5776,"Lu":5777,"code":5778,"azine":5779,"meas":5780,"intellig":5781,"connection":5782,"Gener":5783,"spl":5784,"edy":5785,"redu":5786,"persons":5787,"ERS":5788,"marks":5789,"Keep":5790,"permission":5791,"reverts":5792,"Kore":5793,"ky":5794,"stating":5795,"...\"\"":5796,"positive":5797,"refers":5798,"F5":5799,"dig":5800,"MIN":5801,"model":5802,"gots":5803,"tempor":5804,"judge":5805,"La":5806,"police":5807,"Catholic":5808,"MP":5809,"race":5810,"ONG":5811,"includes":5812,"playing":5813,"TAL":5814,"oppos":5815,"lands":5816,"confused":5817,"offer":5818,"ifying":5819,"pure":5820,"san":5821,"companies":5822,"pick":5823,"za":5824,"intent":5825,"regular":5826,"keeping":5827,"straight":5828,"eyes":5829,"gain":5830,"ots":5831,"puppetry":5832,"atory":5833,"viet":5834,"bold":5835,"shared":5836,"rious":5837,"Germany":5838,"?\"\"":5839,"ded":5840,"ases":5841,"Count":5842,"usive":5843,"ources":5844,"input":5845,"click":5846,"checked":5847,"roll":5848,"imedia":5849,"acts":5850,"choose":5851,"biography":5852,"appeared":5853,"Fr":5854,"Gre":5855,"glo":5856,"anonymous":5857,"secondary":5858,"Person":5859,"va":5860,"held":5861,"feed":5862,"starting":5863,"udd":5864,"proposal":5865,"Sci":5866,"tone":5867,"closed":5868,"languages":5869,"Irish":5870,"BEST":5871,"distin":5872,"photos":5873,"Michael":5874,"afr":5875,"195":5876,"featured":5877,"agenda":5878,"finding":5879,"FAGGOT":5880,"raised":5881,"famous":5882,"Ang":5883,"philoso":5884,"stalk":5885,"aff":5886,"CA":5887,"Mi":5888,"Nipple":5889,"room":5890,"accused":5891,"NE":5892,"Pale":5893,"share":5894,"oh":5895,"contrad":5896,"failed":5897,"Met":5898,"insist":5899,"funny":5900,"sold":5901,"owner":5902,"According":5903,"East":5904,"Star":5905,"USA":5906,"pressed":5907,"numerous":5908,"phen":5909,"normal":5910,"FFFA":5911,"credit":5912,"felt":5913,"professional":5914,"F5FFFA":5915,"Cur":5916,"::::":5917,"Nazi":5918,"Ah":5919,"Cong":5920,"football":5921,"\":":5922,"ws":5923,"hamp":5924,"rude":5925,"referred":5926,"fire":5927,"consistent":5928,"37":5929,"Air":5930,"Day":5931,"touch":5932,"return":5933,"basically":5934,"mix":5935,"additions":5936,"undred":5937,"CON":5938,"ba":5939,"istics":5940,"Tri":5941,"mas":5942,"south":5943,"itution":5944,"attribut":5945,"inser":5946,"forts":5947,"pol":5948,"applic":5949,"logged":5950,"46":5951,"aks":5952,"rock":5953,"vill":5954,"42":5955,"Alex":5956,"onto":5957,"young":5958,"clicking":5959,"offensive":5960,"region":5961,"award":5962,"critical":5963,"George":5964,"Da":5965,"Rich":5966,"Coun":5967,"ctor":5968,"Sun":5969,"nia":5970,"updated":5971,"bands":5972,"satisf":5973,"disambiguation":5974,"anywhere":5975,"OUS":5976,"explic":5977,"UST":5978,"thinks":5979,"Which":5980,"choice":5981,"Ha":5982,"Ko":5983,"zy":5984,"suggestions":5985,"followed":5986,"homo":5987,"ancest":5988,"lad":5989,"areas":5990,"somewhat":5991,"students":5992,"85":5993,"battle":5994,"ports":5995,"efforts":5996,"recommend":5997,"lol":5998,"minutes":5999,"ptions":6000,"considering":6001,"Fl":6002,"copyrighted":6003,"72":6004,"Bill":6005,"isation":6006,"era":6007,"aring":6008,"enter":6009,"subjects":6010,"troll":6011,"titles":6012,"perfectly":6013,"sufficient":6014,"ondon":6015,"tradition":6016,"logic":6017,"Link":6018,"eye":6019,"fring":6020,"speech":6021,"missed":6022,"faggots":6023,"Op":6024,"cant":6025,"hundred":6026,"entially":6027,"TA":6028,"itar":6029,"bastard":6030,"function":6031,"reached":6032,"Pen":6033,"thetic":6034,"whom":6035,"misleading":6036,"higher":6037,"Wikipedians":6038,"strongly":6039,"ium":6040,"sem":6041,"reland":6042,"wood":6043,"alternative":6044,"ience":6045,"Armen":6046,"blank":6047,"MOTH":6048,"Ireland":6049,"98":6050,"ior":6051,"unders":6052,"disputed":6053,"engine":6054,"bol":6055,"nar":6056,"Therefore":6057,"resolution":6058,"collabor":6059,"32":6060,"Lat":6061,"health":6062,"improving":6063,"Love":6064,"conform":6065,"commer":6066,"elsewhere":6067,"running":6068,"assess":6069,"Unfortunately":6070,"establish":6071,"Cha":6072,"middle":6073,"slight":6074,"seemed":6075,"confirmed":6076,"Big":6077,"Bio":6078,"Sam":6079,"WN":6080,"proven":6081,"White":6082,"Soviet":6083,"occup":6084,"Mag":6085,"fered":6086,"ONE":6087,"experimenting":6088,"_talk":6089,"core":6090,"introduction":6091,"Pat":6092,"pi":6093,"waste":6094,"ustr":6095,"watching":6096,"64":6097,"PE":6098,"additional":6099,"died":6100,"frequ":6101,"ened":6102,"ilt":6103,"apologize":6104,"split":6105,"atic":6106,"update":6107,"ked":6108,"wit":6109,"lig":6110,"circum":6111,"African":6112,"Kar":6113,"Tom":6114,"international":6115,"requested":6116,"!!!!!!!!!!!!!!!!!!!!!!!!!!!!!!!!!!!!!!!!!!!!!!!!!!!!!!!!!!!!!!!!":6117,"Palest":6118,"ties":6119,"located":6120,"coverage":6121,"cru":6122,"ds":6123,"ju":6124,"thesis":6125,"matic":6126,"atively":6127,"easier":6128,"GET":6129,"SUP":6130,"TALK":6131,"geo":6132,"blocks":6133,"conspir":6134,"].":6135,"CS":6136,"Je":6137,"padding":6138,"ANS":6139,"relationship":6140,"atives":6141,"2003":6142,"Free":6143,"harm":6144,"%\"\"":6145,"vey":6146,"road":6147,"eff":6148,"fol":6149,"helping":6150,"brother":6151,"London":6152,"ias":6153,"About":6154,"Party":6155,"hat":6156,"replaced":6157,"formatt":6158,"ANN":6159,"iously":6160,"existence":6161,"heart":6162,"pointing":6163,"ysis":6164,"ruction":6165,"Hun":6166,"pus":6167,"swe":6168,"abag":6169,"worse":6170,"mainstream":6171,"ashing":6172,"OOOO":6173,"double":6174,"Law":6175,"tele":6176,"Cour":6177,"imp":6178,"Barnstar":6179,"explicit":6180,"Kur":6181,"2015":6182,"listing":6183,"tood":6184,"\"\")":6185,"evil":6186,"NOES":6187,"participate":6188,"1px":6189,"Cau":6190,"squ":6191,"ops":6192,"helps":6193,"avy":6194,"requires":6195,"ridge":6196,"quickly":6197,"Sa":6198,"aby":6199,"teabag":6200,"contains":6201,"draw":6202,"Gen":6203,"bunch":6204,"rul":6205,"thoughts":6206,"interpretation":6207,"Mu":6208,"Sing":6209,"fucksex":6210,"promote":6211,"pushing":6212,"Hit":6213,"osex":6214,"Only":6215,"Once":6216,"President":6217,"indust":6218,"hood":6219,"freezer":6220,"yourselfgo":6221,"reports":6222,"Croat":6223,"verify":6224,"citing":6225,"biographies":6226,"syste":6227,"aaaaaaaaaaaaaaaa":6228,"aver":6229,"Review":6230,"tten":6231,"Administrat":6232,"ught":6233,"woman":6234,"lower":6235,"capt":6236,"FUCKFUCKFUCKFUCK":6237,"principle":6238,"chart":6239,"nty":6240,"brain":6241,"reject":6242,"ester":6243,"peer":6244,"errors":6245,"Roy":6246,"bb":6247,"HAVE":6248,"67":6249,"rap":6250,"brary":6251,"matters":6252,"addressed":6253,"yyyyyyyyyyyyyyyy":6254,"uyuyuyuyuyuyuyuy":6255,"HU":6256,"Mart":6257,"nu":6258,"rr":6259,"FFFF":6260,"truly":6261,"shortly":6262,"nnnnnnnnnnnnnnnn":6263,"aries":6264,"osexual":6265,"rum":6266,"sight":6267,"tax":6268,"iving":6269,"pron":6270,"criterion":6271,"domain":6272,"Jud":6273,"usual":6274,"specified":6275,"reve":6276,"oul":6277,"dered":6278,"territ":6279,"files":6280,"experienced":6281,"tor":6282,"throw":6283,"acted":6284,"tytytytytytytyty":6285,"craft":6286,"Hum":6287,"Times":6288,"pled":6289,"citiz":6290,"label":6291,"building":6292,"restored":6293,"remind":6294,"perspect":6295,"fellow":6296,"contents":6297,"defined":6298,"sockpuppet":6299,"lence":6300,"FI":6301,"cil":6302,"theories":6303,"careful":6304,"Chris":6305,"defend":6306,"threats":6307,"victim":6308,"PLE":6309,"somehow":6310,"suppose":6311,"sentences":6312,"Check":6313,"Ve":6314,"finally":6315,"Internet":6316,"newspaper":6317,"tware":6318,"FUCKER":6319,"private":6320,"pred":6321,"ancient":6322,"solution":6323,"Bad":6324,"arm":6325,"49":6326,"freedom":6327,"ja":6328,"warned":6329,"tagging":6330,"........":6331,"Contribut":6332,"fiction":6333,"anger":6334,"IGHT":6335,"retard":6336,"worry":6337,"continued":6338,"development":6339,"smells":6340,"afraid":6341,"cry":6342,"jection":6343,"Americans":6344,"widely":6345,"screen":6346,"58":6347,"cross":6348,"mentions":6349,"originally":6350,"credible":6351,"energy":6352,"cale":6353,"paid":6354,"understood":6355,"necessarily":6356,"destroy":6357,"six":6358,"Alban":6359,"providing":6360,"Russia":6361,"Australia":6362,"dumb":6363,"cost":6364,"2000":6365,"ANY":6366,"standing":6367,"Steve":6368,"(\"\"":6369,"47":6370,"dia":6371,"silly":6372,"uel":6373,"keeps":6374,"TOP":6375,"fringe":6376,"LF":6377,"logo":6378,"odes":6379,"OUT":6380,"safe":6381,"Trans":6382,"EE":6383,"Sure":6384,"yout":6385,"thats":6386,"EDOM":6387,"conclusion":6388,"Bur":6389,"Ry":6390,"ek":6391,"ara":6392,"tired":6393,"CRAPCRAPCRAPCRAP":6394,"Archive":6395,"FREEDOM":6396,"ises":6397,"provides":6398,"substanti":6399,"commercial":6400,"%;":6401,"bom":6402,"anno":6403,"ston":6404,"contributor":6405,"integr":6406,"correctly":6407,"appeal":6408,"hardly":6409,"associated":6410,"Ori":6411,"earth":6412,"delay":6413,"Speedy":6414,"88":6415,"convers":6416,"Frank":6417,"harassment":6418,"41":6419,"AY":6420,"Pub":6421,"mid":6422,"DYK":6423,"MS":6424,"avi":6425,"iet":6426,"lims":6427,"caused":6428,"56":6429,"Bra":6430,"Que":6431,"Uk":6432,"gent":6433,".....":6434,"lets":6435,"attitude":6436,"Wales":6437,"Western":6438,"pal":6439,"merged":6440,"location":6441,"Int":6442,"entries":6443,"express":6444,"opposed":6445,"figures":6446,"Furthermore":6447,"natural":6448,"thy":6449,"demand":6450,"interview":6451,"deserve":6452,"began":6453,"abs":6454,"verified":6455,"writer":6456,"quoted":6457,"Polic":6458,"Jer":6459,"concerning":6460,"zzzzzzzzzzzzzzzz":6461,"Cap":6462,"rog":6463,"sole":6464,"Someone":6465,"contradict":6466,"Att":6467,"Sal":6468,"supporting":6469,"sec":6470,"semi":6471,"Those":6472,"throughout":6473,"Str":6474,"save":6475,"Cons":6476,"Cit":6477,"House":6478,"compe":6479,"wars":6480,"translation":6481,"HAHAHAHAHAHAHAHA":6482,"analysis":6483,"Mis":6484,"forget":6485,"mentioning":6486,"career":6487,"surprised":6488,".[":6489,"sick":6490,"peace":6491,"cks":6492,"cities":6493,"significance":6494,"Up":6495,"rer":6496,"loss":6497,"Post":6498,"Polish":6499,"OT":6500,"Ru":6501,"anybody":6502,"metal":6503,"reads":6504,"attempts":6505,"PRO":6506,"bill":6507,"utter":6508,"reasoning":6509,"aves":6510,"Tech":6511,"belongs":6512,"mistakes":6513,"gonna":6514,"Bul":6515,"WT":6516,"deep":6517,"vili":6518,"vandalizing":6519,"target":6520,"Emp":6521,"DR":6522,"Found":6523,"HH":6524,"CKS":6525,"Peter":6526,"BTW":6527,"preh":6528,"twice":6529,"identity":6530,"fault":6531,"Okay":6532,"Ken":6533,"forms":6534,"responsible":6535,"studies":6536,"ictionary":6537,"William":6538,"1111111111111111":6539,"Sign":6540,"script":6541,"Arb":6542,"puppets":6543,"Spanish":6544,"magazine":6545,"BOO":6546,"nes":6547,"progress":6548,"benefit":6549,"BUTT":6550,"\",":6551,"Cri":6552,"vility":6553,"userpage":6554,"conspiracy":6555,"Gover":6556,"gotten":6557,"grand":6558,"detailed":6559,"individuals":6560,"tact":6561,"conserv":6562,"ACC":6563,"mir":6564,"ays":6565,"Muslim":6566,"nearly":6567,"59":6568,"unblocked":6569,"opening":6570,"Kingdom":6571,"DU":6572,"parties":6573,"ENT":6574,"dealing":6575,"clarify":6576,"copied":6577,"involvement":6578,"sides":6579,"tour":6580,"weak":6581,"instruct":6582,"reviews":6583,"BI":6584,"anch":6585,"advoc":6586,"iven":6587,"ederal":6588,"thousands":6589,"Au":6590,"Ty":6591,"rew":6592,"occas":6593,"summaries":6594,"54":6595,"PIN":6596,"ATION":6597,"fundament":6598,"blatant":6599,"Old":6600,"Was":6601,"degree":6602,"busy":6603,"minority":6604,"Er":6605,"sens":6606,"auth":6607,"blue":6608,"smart":6609,"WHAT":6610,"influence":6611,"imply":6612,"regardless":6613,"WITH":6614,"ibility":6615,"MON":6616,"rown":6617,"hasn":6618,"medical":6619,"collect":6620,"DONT":6621,"sess":6622,"society":6623,"structure":6624,"NY":6625,"Ter":6626,"president":6627,"calls":6628,"NOW":6629,"suggesting":6630,"objective":6631,"RfC":6632,";\"\"":6633,"BY":6634,"Sex":6635,"ari":6636,"Thom":6637,"noticeboard":6638,"Prof":6639,"ignored":6640,"Pak":6641,"inc":6642,"rif":6643,"gue":6644,"earch":6645,"https":6646,"motiv":6647,"goal":6648,"Sock":6649,"Conf":6650,"latter":6651,"Hu":6652,"revision":6653,"icks":6654,"Obama":6655,"NT":6656,"mamas":6657,"justify":6658,"listen":6659,"invent":6660,"Israeli":6661,"PG":6662,"fans":6663,"asty":6664,"office":6665,"complex":6666,"substant":6667,"WWWWWWWWWWWWWWWW":6668,"agon":6669,"affect":6670,"confusing":6671,"Mark":6672,"latest":6673,"ignorant":6674,"myth":6675,"leader":6676,"deliber":6677,"Intern":6678,"Dep":6679,"STOP":6680,"dict":6681,"poop":6682,"modif":6683,"ANT":6684,"spent":6685,"player":6686,"software":6687,"forced":6688,"perman":6689,"pathetic":6690,"holder":6691,"////":6692,"promin":6693,"Sat":6694,"Try":6695,"inno":6696,"propose":6697,"PAGE":6698,"station":6699,"violate":6700,"connect":6701,"Commons":6702,"57":6703,"SER":6704,"precise":6705,"SELF":6706,"contrary":6707,"arbitration":6708,"authors":6709,"94":6710,"Sub":6711,"uous":6712,"accident":6713,"applied":6714,"izations":6715,"politics":6716,"parents":6717,"potential":6718,"AH":6719,"Cal":6720,"pse":6721,"ining":6722,"SUPER":6723,"Ukrain":6724,"yer":6725,"stands":6726,"laws":6727,"RAPE":6728,"alleged":6729,"Demo":6730,"perspective":6731,"lay":6732,"lives":6733,"english":6734,"laugh":6735,"Notability":6736,"ADMIN":6737,"assuming":6738,"murder":6739,"County":6740,"nik":6741,"pha":6742,"anted":6743,"wikiped":6744,"confusion":6745,"/////":6746,"82":6747,"_of":6748,"rative":6749,"zen":6750,"rible":6751,"compromise":6752,"poses":6753,"foreign":6754,"phone":6755,"Finally":6756,"oring":6757,"\"\"...":6758,"eved":6759,"cyclo":6760,"eventually":6761,"complaint":6762,"cratic":6763,"Vir":6764,"ife":6765,"announ":6766,"fighting":6767,"Instead":6768,"KILL":6769,"equal":6770,"fast":6771,"yo":6772,"ida":6773,"talkpage":6774,"ART":6775,"suitable":6776,"_of_":6777,"Civ":6778,"IE":6779,"bon":6780,"altered":6781,"impossible":6782,"compet":6783,"hot":6784,"ISM":6785,"wishes":6786,"remains":6787,"BA":6788,"rass":6789,"voice":6790,"Hitler":6791,"43":6792,"fant":6793,"wall":6794,"hair":6795,"Dec":6796,"JER":6797,"isions":6798,"ada":6799,"uded":6800,"cellent":6801,"International":6802,";)":6803,"fasc":6804,"excuse":6805,"licensed":6806,"minim":6807,"vere":6808,"proced":6809,"extra":6810,"engage":6811,"mouth":6812,"shut":6813,"serve":6814,"spend":6815,"emphas":6816,"College":6817,"damn":6818,"Last":6819,"anced":6820,"plenty":6821,"neutrality":6822,"feedback":6823,"rare":6824,"naming":6825,"players":6826,"Earth":6827,"registered":6828,"compreh":6829,"THING":6830,"Ca":6831,"Sar":6832,"onic":6833,"chi":6834,"responding":6835,"insult":6836,"Turkish":6837,"Never":6838,"ico":6839,"agreement":6840,"alent":6841,"BUTTSE":6842,"Sem":6843,"User_talk":6844,"projects":6845,"photograph":6846,"BUTTSECKS":6847,"ander":6848,"forth":6849,"yeah":6850,"COCKSUCKER":6851,"Time":6852,"smo":6853,"portun":6854,"films":6855,"grammar":6856,"restore":6857,"2nd":6858,"65":6859,"bound":6860,"kin":6861,"antic":6862,"cracy":6863,"Anti":6864,"rd":6865,"ades":6866,"carefully":6867,"disputes":6868,"TWAT":6869,"determine":6870,"hampion":6871,"Crit":6872,"Win":6873,"worst":6874,"education":6875,"92":6876,"ria":6877,"plus":6878,"crime":6879,"Robert":6880,"repeat":6881,"Special":6882,"ND":6883,"ality":6884,"undo":6885,"icken":6886,"attacking":6887,"Both":6888,"operation":6889,"Scott":6890,"Bet":6891,"Ira":6892,"ux":6893,"scholars":6894,"Canadian":6895,"LONG":6896,"ilities":6897,"INK":6898,"hopefully":6899,"General":6900,"temporary":6901,"MOTHJER":6902,"bag":6903,"served":6904,"opportun":6905,"signature":6906,"WHY":6907,"cli":6908,"amed":6909,"Thus":6910,"persist":6911,"Dar":6912,"irty":6913,"linking":6914,"curity":6915,"friendly":6916,"Addition":6917,"cul":6918,"artist":6919,"button":6920,"2001":6921,"hide":6922,"warrant":6923,"student":6924,"Smith":6925,"technical":6926,"Non":6927,"teen":6928,"justified":6929,"strange":6930,"voted":6931,"literature":6932,"Use":6933,"explo":6934,"continues":6935,"GGT":6936,"FE":6937,"FR":6938,"Wow":6939,"YM":6940,"master":6941,"plot":6942,"walk":6943,"cele":6944,"irection":6945,"ception":6946,"college":6947,"Rock":6948,"election":6949,"OBS":6950,"native":6951,"tes":6952,"alter":6953,"icial":6954,"plement":6955,"desc":6956,"syn":6957,"founded":6958,"curious":6959,"hands":6960,"Neutral":6961,"FO":6962,"ius":6963,"spirit":6964,"Bot":6965,"Jack":6966,"ological":6967,"raise":6968,"specify":6969,"BeCau":6970,"graphical":6971,"Australian":6972,"Empire":6973,"BeCauSe":6974,"aRe":6975,"unable":6976,"ower":6977,"knowing":6978,"DID":6979,"corrected":6980,"identify":6981,"Northern":6982,"FGGT":6983,"Mel":6984,"iles":6985,"rees":6986,"attempting":6987,"achieve":6988,"uu":6989,"Inte":6990,"France":6991,"bra":6992,"ners":6993,"revis":6994,"omin":6995,"forces":6996,"impression":6997,"homosexual":6998,"activity":6999,"Raj":7000,"amaz":7001,"Otherwise":7002,"beliefs":7003,"conversation":7004,"eg":7005,"option":7006,"skill":7007,"itute":7008,"heading":7009,"Jimbo":7010,")?":7011,"BN":7012,"Cali":7013,"olog":7014,"ram":7015,"WHO":7016,"BULL":7017,"mig":7018,"icated":7019,"lose":7020,"unnecessary":7021,"berg":7022,"informed":7023,"Wikimedia":7024,"AFD":7025,"Mat":7026,"bits":7027,"Union":7028,"95":7029,"FY":7030,"accom":7031,"trolling":7032,"LIVE":7033,"96":7034,"Bullshit":7035,"ls":7036,"ensure":7037,"applies":7038,"prev":7039,"mediation":7040,"convin":7041,"HUGE":7042,"52":7043,"Out":7044,"VAND":7045,"hence":7046,"oil":7047,"rout":7048,"wered":7049,"ung":7050,"Const":7051,"liberal":7052,"viron":7053,"symbol":7054,"Fan":7055,"Ri":7056,"Sc":7057,"wa":7058,"violations":7059,"passed":7060,"cultural":7061,"expanded":7062,"CARE":7063,"DAM":7064,"TER":7065,"nology":7066,"ids":7067,"eval":7068,"employ":7069,"RfA":7070,"paste":7071,"bat":7072,"becoming":7073,"lived":7074,"university":7075,"Bob":7076,"Bush":7077,"ette":7078,"Army":7079,"arguing":7080,"improved":7081,"ARD":7082,"garian":7083,"resolved":7084,"tools":7085,"Mad":7086,"slow":7087,"zed":7088,"inaccurate":7089,"ingu":7090,"idden":7091,"mod":7092,"olly":7093,"formal":7094,"Associ":7095,"largest":7096,"VERY":7097,"adopt":7098,"encourage":7099,"Lit":7100,"thered":7101,"global":7102,"Bel":7103,"EP":7104,"udo":7105,"built":7106,"allegations":7107,"VANDAL":7108,"=)":7109,"Sl":7110,"schools":7111,"responded":7112,"advance":7113,"Court":7114,"74":7115,"mut":7116,"rewrite":7117,"attr":7118,"forgot":7119,"lla":7120,"exam":7121,"herent":7122,"sourcing":7123,"hop":7124,"NOOBS":7125,"Iraq":7126,"jan":7127,"mally":7128,"central":7129,"Super":7130,"Contribs":7131,"comparison":7132,"publication":7133,"attacked":7134,"violating":7135,"84":7136,"flow":7137,"mach":7138,"channel":7139,"Green":7140,"average":7141,"81":7142,"Ra":7143,"Ram":7144,"Washing":7145,"west":7146,"apart":7147,"ivity":7148,"Anyone":7149,"?\"":7150,"cow":7151,"df":7152,"civili":7153,"contributed":7154,"surely":7155,"physical":7156,"Italian":7157,"Dan":7158,"Yet":7159,"hh":7160,"formation":7161,"Assad":7162,"genre":7163,"balance":7164,"expected":7165,"Califor":7166,"Jose":7167,"beat":7168,"ager":7169,"trave":7170,"aka":7171,"boxes":7172,"requests":7173,"editorial":7174,"graphic":7175,"Park":7176,"Pos":7177,"nasty":7178,"pis":7179,"sue":7180,"larger":7181,"AAAA":7182,"episodes":7183,"Bastered":7184,"reveal":7185,"Den":7186,"Very":7187,"rist":7188,"||":7189,"shop":7190,"species":7191,"Unless":7192,"strict":7193,"reporting":7194,"ASE":7195,"historians":7196,"accuracy":7197,"Sur":7198,"flo":7199,"chat":7200,"terday":7201,"virt":7202,"Washington":7203,"CD":7204,"dru":7205,"nut":7206,"usions":7207,"ISH":7208,"mainly":7209,"placing":7210,"carry":7211,"documented":7212,"Bos":7213,"Our":7214,"remarks":7215,"likes":7216,"ANON":7217,"suggests":7218,"production":7219,"explicitly":7220,"seven":7221,"proceed":7222,"charge":7223,"favour":7224,"IDI":7225,"prose":7226,"item":7227,"Requests":7228,"Islamic":7229,"challeng":7230,"imagine":7231,"DAMN":7232,"Bre":7233,"sle":7234,"asp":7235,"female":7236,"votes":7237,"FDL":7238,"97":7239,"Matt":7240,"Pal":7241,"RFC":7242,"pull":7243,"unclear":7244,"gov":7245,"2002":7246,"sake":7247,"COI":7248,"draft":7249,"Encyclo":7250,"recognized":7251,"industry":7252,"systems":7253,"MU":7254,"poll":7255,"soever":7256,"Stud":7257,"compared":7258,"SHUT":7259,"Point":7260,"songs":7261,"treatment":7262,"Two":7263,"bud":7264,"rich":7265,"tun":7266,"univers":7267,"feature":7268,"lick":7269,"Feat":7270,"broken":7271,"waiting":7272,"hundreds":7273,"GFDL":7274,"chap":7275,"ato":7276,"becomes":7277,"accuse":7278,"iff":7279,"olf":7280,"improvement":7281,"Hindu":7282,"BULLSHIT":7283,"AP":7284,"Cam":7285,"ski":7286,"essor":7287,"fuckfuck":7288,"Gold":7289,"viously":7290,"labe":7291,"Discus":7292,"Grand":7293,"PHIL":7294,"formatting":7295,"retarded":7296,"53":7297,"87":7298,"utions":7299,"learning":7300,"Art":7301,"differences":7302,"greater":7303,"Class":7304,"investigation":7305,"Bes":7306,"Year":7307,"imately":7308,"quit":7309,"useless":7310,"External":7311,"Du":7312,"Lord":7313,"sell":7314,"powers":7315,"mathem":7316,"blind":7317,"hitler":7318,"Fam":7319,"YY":7320,"uncivil":7321,"exe":7322,"seek":7323,"portion":7324,"peoples":7325,"restrict":7326,"oldid":7327,"unique":7328,"Latin":7329,"SC":7330,"Vol":7331,"hang":7332,"ji":7333,"aven":7334,"damage":7335,"Richard":7336,"lean":7337,"army":7338,"deed":7339,"Wil":7340,"Real":7341,"spread":7342,"compli":7343,"psycho":7344,"Wo":7345,"vast":7346,"zard":7347,"icism":7348,"weren":7349,"illegal":7350,"radio":7351,"shame":7352,"redirects":7353,"Muslims":7354,"assertion":7355,"treated":7356,"polite":7357,"PHILIP":7358,"edu":7359,"survi":7360,"accusing":7361,"documents":7362,"NAME":7363,"YMOUS":7364,"Del":7365,"gment":7366,"jew":7367,"outhern":7368,"resources":7369,"erson":7370,"obtain":7371,"Commit":7372,"accusation":7373,"developed":7374,"EDIT":7375,"Georg":7376,"Persian":7377,"green":7378,"Administrators":7379,"MONGO":7380,"ANONYMOUS":7381,"Tor":7382,"whatsoever":7383,"path":7384,"California":7385,"PHILIPPIN":7386,"Bu":7387,"Egy":7388,"Name":7389,"toler":7390,"wife":7391,"learned":7392,"balanced":7393,"Mex":7394,"athe":7395,"lia":7396,"astic":7397,"hibit":7398,"intel":7399,"Liber":7400,"YOURSELF":7401,"PHILIPPINES":7402,"0s":7403,"Ba":7404,"Cre":7405,"Ev":7406,"phan":7407,"equiv":7408,"aspects":7409,"911":7410,"Hal":7411,"entit":7412,"ghan":7413,"kie":7414,"hoo":7415,"colum":7416,"produced":7417,"existed":7418,"promotion":7419,"Central":7420,"________________":7421,"Ham":7422,"dep":7423,"cher":7424,"formed":7425,"objection":7426,"feeling":7427,"chicken":7428,"food":7429,"spac":7430,"purposes":7431,"ancestry":7432,"Origin":7433,"Pho":7434,"sume":7435,"suppor":7436,"valu":7437,"Christianity":7438,"terrorist":7439,"censorship":7440,"PHILIPPINESLONG":7441,"500":7442,"Lou":7443,"cis":7444,"display":7445,"OUR":7446,"objections":7447,"Ze":7448,"ov":7449,"theless":7450,"duplic":7451,"showed":7452,"Before":7453,"Azer":7454,"MB":7455,"Show":7456,"Yu":7457,"kets":7458,"zero":7459,"planet":7460,"Iranian":7461,"51":7462,"Tim":7463,"inside":7464,"meat":7465,"convention":7466,"Africa":7467,"AC":7468,"novel":7469,"blogs":7470,"newcom":7471,"Anth":7472,"paragraphs":7473,"mistaken":7474,"Hy":7475,"Nice":7476,"census":7477,"dub":7478,"aside":7479,"agrees":7480,"deserves":7481,"Bible":7482,"Net":7483,"Ti":7484,"catch":7485,"direction":7486,"asy":7487,"rot":7488,"unfortunately":7489,"ITE":7490,"heads":7491,"marked":7492,"initial":7493,"slightly":7494,"Given":7495,"coupled":7496,"morrow":7497,"organizations":7498,"appearance":7499,"barnstar":7500,"promotional":7501,"successful":7502,"Copyright":7503,"pussy":7504,"1st":7505,"bull":7506,"jer":7507,"older":7508,"AK":7509,"hic":7510,"caust":7511,"brand":7512,"ROM":7513,"Palestin":7514,"89":7515,"Jones":7516,"Still":7517,"WOR":7518,"pace":7519,"rice":7520,"ona":7521,"ifications":7522,"genet":7523,"interests":7524,"thorough":7525,"records":7526,"volution":7527,"Ban":7528,"EX":7529,"ITY":7530,"constantly":7531,"lingu":7532,"shoot":7533,"largely":7534,"measure":7535,"Committee":7536,"Ros":7537,"implement":7538,"creator":7539,"commonly":7540,"Web":7541,"Charles":7542,"Science":7543,"Lad":7544,"ancial":7545,"disco":7546,"follows":7547,"supports":7548,"Christians":7549,"Turkey":7550,"Histor":7551,"Music":7552,"Mil":7553,"Press":7554,"alle":7555,"mechan":7556,"Remember":7557,"stopped":7558,"Britain":7559,"Swed":7560,"substantial":7561,"SU":7562,"uine":7563,"ingly":7564,"181":7565,"honestly":7566,"83":7567,"Phi":7568,"Sum":7569,"incorpor":7570,"convert":7571,"wash":7572,"pleas":7573,"firm":7574,"finished":7575,"instructions":7576,")\"\"":7577,"Mur":7578,"environ":7579,"arri":7580,"stories":7581,"References":7582,"Social":7583,"activities":7584,"unte":7585,"clue":7586,"Book":7587,"yesterday":7588,"Leg":7589,"DOG":7590,"!\"\"":7591,"++":7592,".”":7593,"DEN":7594,"Either":7595,"Ret":7596,"card":7597,"sun":7598,"hob":7599,"spin":7600,"vandalized":7601,"79":7602,"ero":7603,"street":7604,"collection":7605,"identified":7606,"designed":7607,"Thomas":7608,"BBC":7609,"heil":7610,"consequ":7611,"letting":7612,"desk":7613,"grounds":7614,"represented":7615,"resolve":7616,"Obviously":7617,"opposite":7618,"Intro":7619,"FL":7620,"fart":7621,"aint":7622,"justice":7623,"rail":7624,"blan":7625,"candidates":7626,"rational":7627,"sey":7628,"archives":7629,"allows":7630,"politic":7631,"closely":7632,"elimin":7633,"UUUU":7634,"intellect":7635,"bridge":7636,"chron":7637,"iful":7638,"observ":7639,"interpre":7640,"network":7641,"orders":7642,"bitches":7643,"assistance":7644,"Featured":7645,"Brad":7646,"Source":7647,"ease":7648,"ume":7649,"render":7650,"genuine":7651,"freely":7652,"Joe":7653,"insulting":7654,"productive":7655,"inserted":7656,"Over":7657,"Tit":7658,"permit":7659,"Support":7660,"Life":7661,"bullshit":7662,"cen":7663,"mans":7664,"tomorrow":7665,"positions":7666,"LOSER":7667,"directed":7668,"Jay":7669,"Know":7670,"Rom":7671,"TM":7672,"Tex":7673,"recall":7674,"ern":7675,"stage":7676,"Arbit":7677,"SUCKS":7678,"constitutes":7679,"Korean":7680,"philosophy":7681,"dating":7682,"western":7683,"enforce":7684,"acknowled":7685,"utch":7686,"OULD":7687,"azi":7688,"officially":7689,"terrorism":7690,"categor":7691,"Rob":7692,"mate":7693,"pdf":7694,"task":7695,"Three":7696,"fear":7697,"Dou":7698,"locaust":7699,"apt":7700,"Head":7701,"center":7702,"Adam":7703,"sky":7704,"CEN":7705,"Sen":7706,"onom":7707,"secret":7708,"everybody":7709,"attempted":7710,"physics":7711,"criminal":7712,"Mary":7713,"biz":7714,"remark":7715,"ongoing":7716,"materials":7717,"stalking":7718,"Virgin":7719,"Di":7720,"hits":7721,"nis":7722,"astern":7723,"cture":7724,"minal":7725,"edition":7726,"aniel":7727,"scientists":7728,"drive":7729,"Queen":7730,"wind":7731,"manage":7732,"explains":7733,"plif":7734,"Royal":7735,"CR":7736,"tacos":7737,"Comment":7738,"fili":7739,"MEX":7740,"recognize":7741,"folks":7742,"Human":7743,"Back":7744,"Tod":7745,"hack":7746,"fake":7747,"pattern":7748,"thodo":7749,"Depart":7750,"Ali":7751,"Fri":7752,"Os":7753,"Tacos":7754,"gust":7755,"arrog":7756,"advis":7757,"implies":7758,"Nov":7759,"FAC":7760,"ventions":7761,"3333":7762,"exception":7763,"Brown":7764,"impact":7765,"opportunity":7766,"HS":7767,"Pop":7768,"Rand":7769,"conven":7770,"intend":7771,"oppose":7772,"submission":7773,"commentary":7774,"ountain":7775,"hurt":7776,"Bal":7777,"ding":7778,"gang":7779,"hoax":7780,"duction":7781,"surd":7782,"League":7783,"DS":7784,"PC":7785,"gi":7786,"uate":7787,"bell":7788,"mere":7789,"ulated":7790,"server":7791,"possibility":7792,"domin":7793,"determined":7794,"Hani":7795,"Having":7796,"bury":7797,"tas":7798,"toward":7799,"subsequ":7800,"normally":7801,"turns":7802,"engaged":7803,"profile":7804,"Greece":7805,"62":7806,"ocide":7807,"agi":7808,"acity":7809,"Nothing":7810,"deny":7811,"advise":7812,"Foundation":7813,"Battle":7814,"Fred":7815,"None":7816,"Ron":7817,"Sir":7818,"Wal":7819,"itation":7820,"vandals":7821,"territory":7822,"adds":7823,"justification":7824,"manip":7825,"ICANS":7826,"ifiability":7827,"ignorance":7828,"cellpadding":7829,"skills":7830,"IDIOT":7831,"entitled":7832,"DC":7833,"vac":7834,"letters":7835,"monit":7836,"IPs":7837,"bal911":7838,"apology":7839,"bare":7840,"spell":7841,"addresses":7842,"ashion":7843,"lenge":7844,"products":7845,"93":7846,"Guy":7847,"lan":7848,"reaction":7849,"liable":7850,"reputation":7851,"Hanibal911":7852,"iers":7853,"scale":7854,"\"\"\"":7855,"chose":7856,"iling":7857,"lacking":7858,"Government":7859,"Unt":7860,"liar":7861,"riage":7862,"ola":7863,"opposition":7864,"CSD":7865,"EAT":7866,"Van":7867,"ert":7868,"unacceptable":7869,"excellent":7870,"91":7871,"Jeff":7872,"Vo":7873,"brow":7874,"ua":7875,"absurd":7876,"angry":7877,"Need":7878,"Editing":7879,"youtube":7880,"BOOBS":7881,"Besides":7882,"Hanibal911You":7883,"Has":7884,"egg":7885,"png":7886,"vin":7887,"mature":7888,"violates":7889,"LAW":7890,"Val":7891,"vague":7892,"habit":7893,"unreliable":7894,"redund":7895,"dude":7896,"distribut":7897,"recorded":7898,"III":7899,"believed":7900,"prominent":7901,"BAG":7902,"Call":7903,"Hen":7904,"Haw":7905,"IVE":7906,"OLE":7907,"adequ":7908,"market":7909,"colon":7910,"Question":7911,"decline":7912,"dare":7913,"nav":7914,"ilty":7915,"math":7916,"helped":7917,"portr":7918,"scene":7919,"ville":7920,"equally":7921,"apologies":7922,"ignoring":7923,"benefits":7924,"Community":7925,"AGA":7926,"Lin":7927,"Mill":7928,"Tru":7929,"answered":7930,"introduced":7931,"Macedonia":7932,"Daniel":7933,"Middle":7934,"Rad":7935,"dies":7936,"offered":7937,"Incident":7938,"llocks":7939,"breed":7940,"fails":7941,"OFFFUCK":7942,"intelligence":7943,"3rd":7944,"WAS":7945,"xx":7946,"accord":7947,"fraud":7948,"didnt":7949,"essentially":7950,"Soci":7951,"titled":7952,"compare":7953,"disruption":7954,"Current":7955,"Apo":7956,"Hill":7957,"dark":7958,"gor":7959,"mac":7960,"tab":7961,"trade":7962,"overall":7963,"affili":7964,"!!!!!!!!!!!!":7965,"speculation":7966,"hammad":7967,"Poland":7968,"receive":7969,"1967":7970,"maps":7971,"Small":7972,"MEXICANS":7973,"Bus":7974,"arms":7975,"vial":7976,"kings":7977,"feelings":7978,"publications":7979,"Council":7980,"television":7981,"Consider":7982,"yn":7983,"lio":7984,"dow":7985,"frank":7986,"actor":7987,"prison":7988,"partial":7989,"papers":7990,"admitted":7991,"frequently":7992,"Mod":7993,"ae":7994,"asser":7995,"desire":7996,"consideration":7997,"regarded":7998,"pronoun":7999,"fundamental":8000,"))":8001,"Cr":8002,"Cat":8003,"Such":8004,"bass":8005,"fle":8006,"vance":8007,"replied":8008,"haz":8009,"library":8010,"rape":8011,"describing":8012,"kids":8013,"nikko":8014,"Association":8015,"PM":8016,"emot":8017,"rating":8018,"useum":8019,"civility":8020,"items":8021,"hero":8022,"experts":8023,"happening":8024,"define":8025,"candidate":8026,"distinction":8027,"Pakistan":8028,"Today":8029,"Department":8030,"BG":8031,"Hor":8032,"dictionary":8033,"anon":8034,"covers":8035,"tells":8036,"qualify":8037,"massive":8038,"Mike":8039,"Martin":8040,"Contributions":8041,".'":8042,"vention":8043,"unlikely":8044,"ulate":8045,"123":8046,"Afghan":8047,"CHE":8048,"parently":8049,"spoken":8050,"Ash":8051,"Def":8052,"Eth":8053,"Shi":8054,"Us":8055,"Watch":8056,"dem":8057,"depart":8058,"weap":8059,"ours":8060,"writes":8061,"reviewing":8062,"indicates":8063,"Apr":8064,"beaut":8065,"perate":8066,"lict":8067,"ANAL":8068,"handle":8069,"MOS":8070,"stein":8071,"traditional":8072,"citizen":8073,"Policy":8074,"Bay":8075,"Mem":8076,"dat":8077,"arse":8078,"icine":8079,"stone":8080,"realized":8081,"north":8082,"Notice":8083,"effects":8084,"skin":8085,"Congrat":8086,"300":8087,"DD":8088,"HR":8089,"Men":8090,"kins":8091,"sports":8092,"arian":8093,"kee":8094,"Think":8095,"grat":8096,"answers":8097,"Images":8098,"testing":8099,"Seriously":8100,"========":8101,"RIGHT":8102,"Sand":8103,"jack":8104,"unfair":8105,"slav":8106,"criticisms":8107,"economic":8108,"circumst":8109,"Rac":8110,"Ur":8111,"Info":8112,"101":8113,"ponents":8114,"string":8115,"encyclopa":8116,"biggest":8117,"extent":8118,"Foot":8119,"movies":8120,"Moreover":8121,"newcomers":8122,"Come":8123,"Pict":8124,"fing":8125,"rection":8126,"unconstructive":8127,"discovered":8128,"command":8129,"merit":8130,"racism":8131,"clarification":8132,"\"::::":8133,"switch":8134,"satisfy":8135,"Ryan":8136,"valuable":8137,"Clear":8138,"Hon":8139,"abusive":8140,"unlike":8141,"ounds":8142,"primar":8143,"USE":8144,"credibility":8145,"volunte":8146,"Guide":8147,"matches":8148,"scholarly":8149,"Far":8150,"Fil":8151,"TI":8152,"Tony":8153,"acknowledge":8154,"unknown":8155,"pov":8156,"finish":8157,"critics":8158,"chosen":8159,"niggas":8160,"cocks":8161,"village":8162,"ACCESS":8163,"Eastern":8164,"GN":8165,"Mos":8166,"perce":8167,"USS":8168,"trial":8169,"flaw":8170,"morning":8171,"Fox":8172,"elements":8173,"reputable":8174,"PLEASE":8175,"ArbCom":8176,"pseudo":8177,"Ce":8178,"dogs":8179,"violated":8180,"buy":8181,"Dist":8182,"fashion":8183,"hun":8184,"hoping":8185,"writers":8186,"responsi":8187,"greatly":8188,"ships":8189,"assumed":8190,"accompl":8191,"RFA":8192,"nick":8193,"scri":8194,"lop":8195,"preced":8196,"RED":8197,"Island":8198,"refs":8199,"ugly":8200,"soft":8201,"violence":8202,"EID":8203,"Gar":8204,"VI":8205,"sche":8206,"esh":8207,"bye":8208,"cares":8209,"opened":8210,"threatening":8211,"continuing":8212,"typical":8213,"features":8214,"Apparently":8215,"Armenian":8216,"ros":8217,"wealth":8218,"unit":8219,"percent":8220,"condition":8221,"nationality":8222,"publisher":8223,"believes":8224,"Public":8225,"Criminal":8226,"Budd":8227,"bin":8228,"fu":8229,"mart":8230,"sar":8231,"orm":8232,"ala":8233,"vehic":8234,"artists":8235,"Chang":8236,"pair":8237,"representation":8238,"Francis":8239,"challenge":8240,"conservative":8241,"73":8242,"Find":8243,"gif":8244,"proves":8245,"frustr":8246,"ques":8247,"lessly":8248,"ached":8249,"financial":8250,"invited":8251,"specifies":8252,"mixed":8253,"Award":8254,"Br":8255,"stuck":8256,"discrimin":8257,"ophi":8258,"notices":8259,"LIKE":8260,"poorly":8261,"besides":8262,"Center":8263,"Verifiability":8264,"deliberately":8265,"Vict":8266,"ula":8267,"upset":8268,"evident":8269,"gender":8270,"sexSex":8271,"watchlist":8272,"Research":8273,"Serbian":8274,"innocent":8275,"mathemat":8276,"Arbitration":8277,"thodox":8278,"AGAIN":8279,"Bor":8280,"Gra":8281,"heavy":8282,"\"\").":8283,"boys":8284,"els":8285,"hole":8286,"Indeed":8287,"Asia":8288,"Bell":8289,"LOLOLOLO":8290,"Interest":8291,"DENEID":8292,"Glo":8293,"Mess":8294,"Put":8295,"lor":8296,"wp":8297,"wed":8298,"caught":8299,"proud":8300,"offended":8301,"===":8302,"GOD":8303,"locked":8304,"literally":8305,"arts":8306,"rence":8307,"informative":8308,"commented":8309,"constant":8310,"statistics":8311,"historian":8312,"Space":8313,"massac":8314,"Jour":8315,"Kind":8316,"Move":8317,"Ot":8318,"Say":8319,"[]":8320,"clim":8321,"rated":8322,"conventions":8323,"dot":8324,"gold":8325,"refuse":8326,"fixing":8327,"initi":8328,"submitted":8329,"assessment":8330,"BR":8331,"Ten":8332,"pp":8333,"quant":8334,"reser":8335,"grade":8336,"illust":8337,"ESE":8338,"Comp":8339,"describes":8340,"cris":8341,"historic":8342,"Coll":8343,"racial":8344,"albums":8345,"Scot":8346,"agiar":8347,"los":8348,"urb":8349,"district":8350,"distingu":8351,"River":8352,"Edu":8353,"wrest":8354,"sets":8355,"implic":8356,"sop":8357,"tect":8358,"lede":8359,"launch":8360,"emplo":8361,"terrorists":8362,"CUR":8363,"Sol":8364,"UL":8365,"dro":8366,"sect":8367,"consul":8368,"resist":8369,"Really":8370,"Street":8371,"bringing":8372,"Hopefully":8373,"annoying":8374,"equivalent":8375,"Anthony":8376,"CAL":8377,"Nig":8378,"Tam":8379,"hol":8380,"inn":8381,"icious":8382,"Their":8383,"privi":8384,"directory":8385,"Polit":8386,"electron":8387,"preferred":8388,"Serbia":8389,"Discussion":8390,"()":8391,"Hmm":8392,"VD":8393,"rs":8394,"libel":8395,"sud":8396,"minute":8397,"prepare":8398,"assign":8399,"pring":8400,"izes":8401,"archived":8402,"trivial":8403,"conditions":8404,"organisation":8405,"failure":8406,"technology":8407,"promoting":8408,"animals":8409,"Until":8410,"Bri":8411,"OWN":8412,"league":8413,"Though":8414,"element":8415,"\"::::::":8416,"celebr":8417,"Joseph":8418,"dirty":8419,"kick":8420,"pu":8421,"reci":8422,"rewritten":8423,"pressing":8424,"distort":8425,"aircraft":8426,"denial":8427,"primarily":8428,"fest":8429,"tim":8430,"abusing":8431,"viewpoint":8432,"pointless":8433,"whereas":8434,"mond":8435,"capable":8436,"sockpuppetry":8437,"harassing":8438,"Fre":8439,"Make":8440,"RT":8441,"ugu":8442,"decent":8443,"bothered":8444,"whoever":8445,"sales":8446,"Death":8447,"nominate":8448,"suspic":8449,"committed":8450,"Texas":8451,"Ta":8452,"cision":8453,"paged":8454,"bear":8455,"dear":8456,"dows":8457,"proved":8458,"disgust":8459,"puts":8460,"fucker":8461,"relatively":8462,"highest":8463,"ackson":8464,"ALLY":8465,"respected":8466,"constitution":8467,"settle":8468,"Koso":8469,"connected":8470,"HERE":8471,"pti":8472,"alot":8473,"security":8474,"aggress":8475,"sored":8476,"causes":8477,"owned":8478,"reasonably":8479,"Start":8480,"Group":8481,"Phil":8482,"technically":8483,"EU":8484,"arter":8485,"estim":8486,"presum":8487,"temper":8488,"Christmas":8489,"voting":8490,"wanna":8491,"rejected":8492,"Encyclopedia":8493,"Philip":8494,"Oxy":8495,"loser":8496,"shi":8497,"ureau":8498,"forever":8499,"emer":8500,"Isn":8501,"brew":8502,"Blue":8503,"filled":8504,"61":8505,"Ox":8506,"elete":8507,"gri":8508,"pics":8509,"rang":8510,"uted":8511,"!!'":8512,"guilty":8513,"warn":8514,"bling":8515,"requirements":8516,"punish":8517,"aughter":8518,"Macedonian":8519,"missions":8520,"methods":8521,"Introduction":8522,"BAN":8523,"Son":8524,"trh":8525,"Reliable":8526,"Contro":8527,"turning":8528,"Oppose":8529,"Additionally":8530,"LAWDY":8531,"pagedelete":8532,"Div":8533,"Khan":8534,"PERS":8535,"gins":8536,"anth":8537,"iter":8538,"door":8539,"ets":8540,"ulty":8541,"doesnt":8542,"techni":8543,"bloody":8544,"Personal":8545,"Conflict":8546,"essay":8547,"neigh":8548,"Notrh":8549,"finite":8550,"cites":8551,"Photo":8552,"Lar":8553,"east":8554,"gall":8555,"asion":8556,"frame":8557,"exer":8558,"crimes":8559,"Play":8560,"millions":8561,"crazy":8562,"Secondly":8563,"Muhammad":8564,"Notrhby":8565,".-":8566,"Ama":8567,"Es":8568,"Mass":8569,"uit":8570,"eness":8571,"staff":8572,"lift":8573,"Third":8574,"icted":8575,"129":8576,"banof":8577,"relevance":8578,"MainPage":8579,"distinct":8580,"southbanof":8581,"Croatian":8582,"FUCKFUCKFUCKFUCKFUCKFUCKFUCKFUCK":8583,"Notrhbysouthbanof":8584,"Eli":8585,"Open":8586,"OVER":8587,"PD":8588,"sir":8589,"ini":8590,"iny":8591,"ancy":8592,"isan":8593,"butt":8594,"cious":8595,"specially":8596,"preser":8597,"herit":8598,"memory":8599,"250":8600,"risk":8601,"scope":8602,"intelligent":8603,"GB":8604,"Oper":8605,"bow":8606,"brit":8607,"iled":8608,"Revert":8609,"closer":8610,"highlight":8611,"Seems":8612,"credited":8613,"facilit":8614,"Korea":8615,"aaaaaaaaaaaaaaaaaaaaaaaaaaaaaaaa":8616,"uyuyuyuyuyuyuyuyuyuyuyuyuyuyuyuy":8617,"nnnnnnnnnnnnnnnnnnnnnnnnnnnnnnnn":8618,"FYI":8619,"Family":8620,"216":8621,"63":8622,"YE":8623,"iation":8624,"mu":8625,"\"\";":8626,"comfort":8627,"prod":8628,"factor":8629,"empt":8630,"circ":8631,"advertise":8632,"steps":8633,"universe":8634,"ethnicity":8635,"newspapers":8636,"yyyyyyyyyyyyyyyyyyyyyyyyyyyyyyyy":8637,"hidden":8638,"sport":8639,"ento":8640,"aran":8641,"ici":8642,"icide":8643,"wasting":8644,"appointed":8645,"deletions":8646,"illa":8647,"presence":8648,"embar":8649,"kindly":8650,"1999":8651,"drink":8652,"conclusions":8653,"phenomen":8654,"MainPageBG":8655,"Ms":8656,"rior":8657,"doct":8658,"Chic":8659,"subjective":8660,"Cont":8661,"definitions":8662,"teams":8663,"tytytytytytytytytytytytytytytyty":8664,"chapter":8665,"intellectual":8666,"Gi":8667,"Jac":8668,"dim":8669,"rise":8670,"ario":8671,"advant":8672,"deem":8673,"weird":8674,"killing":8675,"Inc":8676,"corrupt":8677,"married":8678,"bigger":8679,"AST":8680,"daily":8681,"redundant":8682,"PP":8683,"fly":8684,"jum":8685,"heavi":8686,"defam":8687,"expressed":8688,"download":8689,"flat":8690,"extensive":8691,"expan":8692,"verifiability":8693,"Dutch":8694,"JPG":8695,"Night":8696,"Power":8697,"nations":8698,"opt":8699,"proto":8700,"Wizard":8701,"herself":8702,"144":8703,"communist":8704,"Acade":8705,"insults":8706,"????????":8707,"cation":8708,"kers":8709,"cape":8710,"sons":8711,"leads":8712,"smaller":8713,"Nick":8714,"SI":8715,"pressure":8716,"Altern":8717,"powerful":8718,"honor":8719,"speakers":8720,"\":::":8721,"animal":8722,"occurred":8723,"judgement":8724,"Society":8725,"sudden":8726,"Bat":8727,"EV":8728,"baby":8729,"stem":8730,"moves":8731,"tel":8732,"talks":8733,"whenever":8734,"approved":8735,"moral":8736,"commons":8737,"services":8738,"horse":8739,"Arabic":8740,"demonstrate":8741,"dialect":8742,"ARTIC":8743,"AW":8744,"Gal":8745,"OD":8746,"Pan":8747,"bai":8748,"retain":8749,"sea":8750,"ller":8751,"guitar":8752,"marriage":8753,"administrative":8754,"property":8755,"quoting":8756,"contained":8757,"dedicated":8758,"convinced":8759,"circumstances":8760,"Cup":8761,"rev":8762,"alpha":8763,"behalf":8764,"relations":8765,"feels":8766,"150":8767,"wont":8768,"defending":8769,"Constitution":8770,"Louis":8771,"CIA":8772,"Fire":8773,"UE":8774,"Way":8775,"laz":8776,"mang":8777,"discour":8778,"questionable":8779,"controlled":8780,"quotation":8781,"Viet":8782,"purely":8783,"Hard":8784,"],":8785,"eld":8786,"ii":8787,"zing":8788,"rem":8789,"het":8790,"urn":8791,"disease":8792,"!!!!!!!":8793,"Chester":8794,"qualified":8795,"effective":8796,"DELE":8797,"jerk":8798,"expansion":8799,"Long":8800,"excess":8801,"endor":8802,"192":8803,"harrass":8804,"Boy":8805,"holding":8806,"explanations":8807,"shock":8808,"occupation":8809,"CRAPCRAPCRAPCRAPCRAPCRAPCRAPCRAP":8810,"substantially":8811,"Oxymoron":8812,"Dick":8813,"Jackson":8814,"tutorial":8815,"vest":8816,"ilst":8817,"plat":8818,"udes":8819,"akes":8820,"greatest":8821,"allowing":8822,"cleanup":8823,"principles":8824,"Braz":8825,"supporters":8826,"1000":8827,"Bang":8828,"ML":8829,"Military":8830,"Sik":8831,"ication":8832,"THEY":8833,"minded":8834,"casual":8835,"introduce":8836,"Nazis":8837,"printed":8838,"Dave":8839,"Na":8840,"Nat":8841,"Sandbox":8842,"XX":8843,"dial":8844,"ray":8845,"stress":8846,"plant":8847,"Recent":8848,"managed":8849,"ISBN":8850,"blame":8851,"starts":8852,"trivia":8853,"Disney":8854,"hearing":8855,"academ":8856,"selecting":8857,"application":8858,"occasion":8859,"invented":8860,"machine":8861,"Clearly":8862,"Dun":8863,"Fa":8864,"Fat":8865,"infl":8866,"itic":8867,"arrest":8868,"liament":8869,"ults":8870,"THER":8871,"Section":8872,"strateg":8873,"joined":8874,"accurately":8875,"STUP":8876,"practic":8877,"burg":8878,"Juda":8879,"column":8880,"((":8881,"Cer":8882,"Face":8883,"Using":8884,"lap":8885,"stable":8886,"ador":8887,"extr":8888,"gger":8889,"improvements":8890,"represents":8891,"arbitr":8892,"training":8893,"Dy":8894,"Mah":8895,"Num":8896,"fare":8897,"jun":8898,"tan":8899,"whel":8900,"urs":8901,"quette":8902,"dish":8903,"bled":8904,"130":8905,"mitt":8906,"construction":8907,"Looks":8908,"LIFE":8909,"Harry":8910,"hahahahahahahaha":8911,"increase":8912,"IMO":8913,"lly":8914,"stars":8915,"transfer":8916,"communication":8917,"bomb":8918,"Palestinian":8919,"120":8920,"Ray":8921,"complic":8922,"coordin":8923,"grav":8924,"genocide":8925,"passage":8926,"Metal":8927,"precisely":8928,"procedure":8929,"depth":8930,"dubious":8931,"genetic":8932,"Chicago":8933,"Care":8934,"Cult":8935,"Fal":8936,"Top":8937,"sin":8938,"ads":8939,"entity":8940,"ression":8941,"!!!!!!":8942,"cert":8943,"responses":8944,"STUPID":8945,"Ky":8946,"Next":8947,"fD":8948,"thet":8949,"itz":8950,"urally":8951,"nowhere":8952,"tire":8953,"whore":8954,"granted":8955,"renamed":8956,"obsc":8957,"relating":8958,"branch":8959,"Being":8960,"argued":8961,"breaking":8962,"Prince":8963,"girls":8964,"Got":8965,"dream":8966,"stren":8967,"plagiar":8968,"grap":8969,"hadn":8970,"Leave":8971,"Without":8972,"increasing":8973,"OL":8974,"bie":8975,"lab":8976,"ena":8977,"\"\"\"\"":8978,"mob":8979,"fee":8980,"Box":8981,"CHAN":8982,"meeting":8983,"footnote":8984,"WIKI":8985,"ownership":8986,"flight":8987,"arer":8988,"resident":8989,"mann":8990,"problematic":8991,"decisions":8992,"indicated":8993,"idiots":8994,"CriminalWar":8995,"Journal":8996,"PERSON":8997,"Bunk":8998,"Fun":8999,"WR":9000,"isl":9001,"max":9002,"ival":9003,"READ":9004,"invite":9005,"leges":9006,"filed":9007,"LICK":9008,"Club":9009,"translated":9010,"victims":9011,"Original":9012,"BunkSteve":9013,"bage":9014,"gus":9015,"loves":9016,"resource":9017,"illustr":9018,"viewed":9019,"awards":9020,"pieces":9021,"itarian":9022,"Scout":9023,"Dark":9024,"End":9025,"Log":9026,"dang":9027,"pack":9028,"agan":9029,"iano":9030,"offense":9031,"overwhel":9032,"Beat":9033,"142":9034,"charges":9035,"Editor":9036,"00000000":9037,"employe":9038,"Elect":9039,"Gur":9040,"Tai":9041,"rants":9042,"wild":9043,"prejud":9044,"Asian":9045,"texts":9046,"Below":9047,"undue":9048,"Plus":9049,"HOME":9050,"forums":9051,"intentions":9052,"attributed":9053,"facilitate":9054,"BLE":9055,"Cast":9056,"Whether":9057,"federal":9058,"spot":9059,"encies":9060,"rie":9061,"units":9062,"neo":9063,"refused":9064,"broke":9065,"emphasis":9066,"accordance":9067,"frankly":9068,"A7":9069,"Direct":9070,"MC":9071,"rial":9072,"serving":9073,"209":9074,"spamming":9075,"variety":9076,"sanction":9077,"conformance":9078,"Little":9079,"VANDALISM":9080,"210":9081,"212":9082,"LAND":9083,"OS":9084,"isnt":9085,"aly":9086,"POST":9087,"ponent":9088,"compat":9089,"solve":9090,"figh":9091,"Example":9092,"Leban":9093,"defense":9094,"childish":9095,"audio":9096,"punk":9097,"Personally":9098,"11111111111111111111111111111111":9099,"Oxford":9100,"DVD":9101,"Home":9102,"bour":9103,"gross":9104,"pin":9105,"som":9106,"pool":9107,"Hebrew":9108,"referencing":9109,"Holocaust":9110,"141":9111,"Edgar":9112,"biographical":9113,"complaints":9114,"minimum":9115,"heavily":9116,"BER":9117,"Mid":9118,"sister":9119,"tree":9120,"island":9121,"unci":9122,"iders":9123,"sibly":9124,"vandalising":9125,"173":9126,"diffs":9127,"douche":9128,"ambiguous":9129,"oooo":9130,"declared":9131,"association":9132,"Italy":9133,"COCKSUCKING":9134,"Federal":9135,"Hom":9136,"JUST":9137,"Tag":9138,"ULL":9139,"iently":9140,"nazi":9141,"republic":9142,"Whatever":9143,"uding":9144,"Record":9145,"ief":9146,"involving":9147,"COMP":9148,"ABOUT":9149,"Tell":9150,"drawn":9151,"Respon":9152,"Republican":9153,"assumption":9154,"selected":9155,"Congress":9156,"Criticism":9157,"Frequ":9158,"NC":9159,"Sk":9160,"eh":9161,"nals":9162,"asha":9163,"icans":9164,"ache":9165,"depict":9166,"notification":9167,"concent":9168,"iah":9169,"poly":9170,"iance":9171,"grace":9172,"span":9173,"internal":9174,"Force":9175,"origins":9176,"Tele":9177,"potentially":9178,"Portal":9179,"!!!!!!!!!!!!!!!!!!!!!!!!!!!!!!!!!!!!!!!!!!!!!!!!!!!!!!!!!!!!!!!!!!!!!!!!!!!!!!!!!!!!!!!!!!!!!!!!!!!!!!!!!!!!!!!!!!!!!!!!!!!!!!!!":9180,"challenged":9181,"Ga":9182,"HER":9183,"MANN":9184,"Sources":9185,"reign":9186,"ental":9187,"INT":9188,"issued":9189,"Doc":9190,"128":9191,"authorities":9192,"adopted":9193,"Greet":9194,"Lead":9195,"Wall":9196,"pig":9197,"height":9198,"hello":9199,"christ":9200,"app":9201,"logies":9202,"chem":9203,"realise":9204,"surround":9205,"politically":9206,"zzzzzzzzzzzzzzzzzzzzzzzzzzzzzzzz":9207,"acknowledged":9208,"Die":9209,"Fort":9210,"MUST":9211,"btw":9212,"ufact":9213,"returned":9214,"usively":9215,"unrelated":9216,"oked":9217,"guard":9218,"typing":9219,"merging":9220,"Holy":9221,"222":9222,"fictional":9223,"Civil":9224,"Yugo":9225,"Bi":9226,"Shar":9227,"Zion":9228,"gate":9229,"scan":9230,"ware":9231,"ables":9232,"ody":9233,"1998":9234,"Stephen":9235,"tables":9236,"AGF":9237,"IRC":9238,"Biographies":9239,"spacing":9240,"Vietnam":9241,";-)":9242,"Blo":9243,"Bish":9244,"Dam":9245,"Vill":9246,"ibly":9247,"sometime":9248,"venue":9249,"brown":9250,"sockpuppets":9251,"romney":9252,"consistency":9253,"BUM":9254,"Game":9255,"gers":9256,"orient":9257,"actors":9258,"poster":9259,"generation":9260,"badly":9261,"Marcol":9262,"IDE":9263,"Lee":9264,"Fucking":9265,"Spain":9266,"balls":9267,"remaining":9268,"BOT":9269,"soldiers":9270,"witness":9271,"Congratulations":9272,"Ill":9273,"Ly":9274,"Rel":9275,"advan":9276,"guid":9277,"20th":9278,"archite":9279,"WWE":9280,"Too":9281,"kinds":9282,"Something":9283,"Germans":9284,"dealt":9285,"Greeks":9286,"contrast":9287,"WWWWWWWWWWWWWWWWWWWWWWWWWWWWWWWW":9288,"Afghanistan":9289,".—":9290,"BM":9291,"Pet":9292,"lu":9293,"anarch":9294,"affair":9295,"ONLY":9296,"Stand":9297,"videos":9298,"SHOULD":9299,"passing":9300,"declined":9301,"ordinary":9302,"Judaism":9303,"MarcolFuck":9304,"KNOW":9305,"Pur":9306,"_for":9307,"ec":9308,"euro":9309,"gary":9310,"pher":9311,"ission":9312,"abal":9313,"iments":9314,"spelled":9315,"Comments":9316,"Library":9317,"collap":9318,"focused":9319,"destroyed":9320,"obscure":9321,"!\"":9322,"EVERY":9323,"Gam":9324,"GRE":9325,"Kat":9326,"Rather":9327,"Wolf":9328,"expression":9329,"...)":9330,"posit":9331,"207":9332,"sphere":9333,"administration":9334,"boymamas":9335,"caption":9336,"Slav":9337,"Kosovo":9338,"Clar":9339,"QU":9340,"fab":9341,"uated":9342,"evin":9343,"backed":9344,"110":9345,"Andrew":9346,"Nobody":9347,"founder":9348,"leaders":9349,"nationalist":9350,"pending":9351,"holds":9352,"american":9353,"entertain":9354,"execut":9355,"Azerbai":9356,"interpreted":9357,"_for_":9358,"AE":9359,"Creat":9360,"champion":9361,"alin":9362,"heat":9363,"lym":9364,"Report":9365,"obs":9366,"factually":9367,"manual":9368,"partisan":9369,"ips":9370,"paraph":9371,"trip":9372,"Prob":9373,"runs":9374,"elections":9375,"MMMM":9376,"inserting":9377,"citizens":9378,"permitted":9379,"Frequently":9380,"Baby":9381,"pto":9382,"cold":9383,"Reply":9384,"rank":9385,"Spam":9386,"Warning":9387,"winning":9388,"CUNTCUNT":9389,"****":9390,"performance":9391,"reduce":9392,"Henry":9393,"Global":9394,"Greetings":9395,"Dra":9396,"Len":9397,"cket":9398,"jok":9399,"terrible":9400,"goals":9401,"medicine":9402,"bank":9403,"humans":9404,"redirected":9405,"recognition":9406,"calm":9407,"royal":9408,"OOOOOOOO":9409,"drug":9410,"Company":9411,"Slo":9412,"WANT":9413,"ost":9414,"scr":9415,"zon":9416,"indefinitely":9417,"reck":9418,"dev":9419,"disci":9420,"causing":9421,"!!!!!":9422,"closing":9423,"misunderstanding":9424,"inval":9425,"organized":9426,"Turks":9427,"narrow":9428,"beautiful":9429,"Victor":9430,"Tre":9431,"WER":9432,"kh":9433,"uries":9434,"doll":9435,"talked":9436,"legally":9437,"dynam":9438,"tiny":9439,"blanking":9440,"Scotland":9441,"daughter":9442,"mum":9443,"sland":9444,"reversion":9445,"protest":9446,"perial":9447,"seeking":9448,"speaks":9449,"commenting":9450,"adminship":9451,"everywhere":9452,"108":9453,"margin":9454,"correcting":9455,"completed":9456,"seconds":9457,"1990":9458,"protecting":9459,"translate":9460,"dropdown":9461,"requirement":9462,"FORM":9463,"Flor":9464,"Han":9465,"Nic":9466,"rein":9467,"thent":9468,"aling":9469,"esome":9470,"irt":9471,"fell":9472,"approx":9473,"prompt":9474,"Marx":9475,"denied":9476,"meaningful":9477,"Paris":9478,"pretend":9479,"BOL":9480,"Regardless":9481,"integrity":9482,"solely":9483,"announced":9484,"amazing":9485,"Truth":9486,"TIME":9487,"Ker":9488,"Miss":9489,"bush":9490,"inf":9491,"mode":9492,"iler":9493,"aked":9494,"corrections":9495,"survey":9496,"concepts":9497,"educated":9498,"square":9499,"climate":9500,"prepared":9501,"Ado":9502,"NEW":9503,"OP":9504,"hint":9505,"jump":9506,"las":9507,"uations":9508,"ita":9509,"ension":9510,"sie":9511,"wanting":9512,"earn":9513,"Andy":9514,"avo":9515,"ASSH":9516,"TOM":9517,"govern":9518,"planning":9519,"constitute":9520,"stubs":9521,"Links":9522,"descend":9523,"responsibility":9524,"Give":9525,"Land":9526,"Wat":9527,"wen":9528,"lli":9529,"immig":9530,"prohibit":9531,"quer":9532,"trick":9533,"ava":9534,"supply":9535,"174":9536,"documentation":9537,"programs":9538,"Albanian":9539,"Creation":9540,"phaned":9541,"BB":9542,"bia":9543,"kn":9544,"tion":9545,"dozen":9546,"plane":9547,"overview":9548,"centuries":9549,"Looking":9550,"settled":9551,"Institute":9552,"rollback":9553,"Angel":9554,"FFFFFF":9555,"Bulgarian":9556,"Darwin":9557,"arrogant":9558,"ACT":9559,"Ele":9560,"GU":9561,"Much":9562,"font":9563,"kj":9564,"tv":9565,"Chan":9566,"counts":9567,"168":9568,"figured":9569,"analog":9570,"gather":9571,"strike":9572,"licensing":9573,"obtained":9574,"crow":9575,"hl":9576,"pes":9577,"rage":9578,"sovere":9579,"urge":9580,"crack":9581,"extended":9582,"levels":9583,"conflicts":9584,"View":9585,"Child":9586,"paraphr":9587,"Dude":9588,"Langu":9589,"TT":9590,"bab":9591,"bles":9592,"gal":9593,"nie":9594,"stru":9595,"contemporary":9596,"serves":9597,"county":9598,"decades":9599,"hyper":9600,"plified":9601,"Yugoslav":9602,"Age":9603,"FROM":9604,"NPA":9605,"Oct":9606,"Pac":9607,"ogue":9608,"root":9609,"fuckin":9610,"cheese":9611,"addressing":9612,"Online":9613,"director":9614,"caste":9615,"capacity":9616,"Plan":9617,"promoted":9618,"grey":9619,"Mas":9620,"UM":9621,"dd":9622,"options":9623,"rab":9624,"thur":9625,"insp":9626,"astr":9627,"liver":9628,"femin":9629,"angle":9630,"ota":9631,"manufact":9632,"Chat":9633,"122":9634,"COMM":9635,"antime":9636,"representative":9637,"division":9638,"picked":9639,"modified":9640,"wikipedians":9641,"sleep":9642,"aggressive":9643,"Camp":9644,"During":9645,"Mont":9646,"PIE":9647,"RD":9648,"YTM":9649,"doctor":9650,"taught":9651,"Hell":9652,"190":9653,"relative":9654,"146":9655,"177":9656,"newsletter":9657,"threatened":9658,"Follow":9659,"practices":9660,"falls":9661,"bully":9662,"NEVER":9663,"warranted":9664,"environment":9665,"distinguish":9666,"YTMND":9667,"Hence":9668,"Rus":9669,"Sto":9670,"kar":9671,"alive":9672,"stro":9673,"gos":9674,"elabor":9675,"sip":9676,"logist":9677,"solved":9678,"handed":9679,"perior":9680,"receiving":9681,"significantly":9682,"convince":9683,"publishing":9684,"Ukrainian":9685,"AF":9686,"Champion":9687,"IAN":9688,"NS":9689,"Squ":9690,"weigh":9691,"apy":9692,"prus":9693,"descent":9694,"contentious":9695,"reliability":9696,"header":9697,"analy":9698,"encouraged":9699,"virtually":9700,"Gay":9701,"liked":9702,"dishonest":9703,"displayed":9704,"tips":9705,"Information":9706,"Relig":9707,"114":9708,"prime":9709,"regional":9710,"merits":9711,"103":9712,"values":9713,"musical":9714,"sorts":9715,"disagreement":9716,"meaningless":9717,"garbage":9718,"limits":9719,"enemy":9720,"wikimedia":9721,"Mexico":9722,"streng":9723,".(":9724,"Cross":9725,"Down":9726,"Max":9727,"rome":9728,"inline":9729,"agno":9730,"discover":9731,"coo":9732,"ggle":9733,"intervention":9734,"searching":9735,"stats":9736,"profit":9737,"scientist":9738,"ELESS":9739,"demonstrated":9740,"democracy":9741,"ADMINS":9742,"rarely":9743,"Lady":9744,"lazy":9745,"endorse":9746,"Edgar181":9747,"->":9748,"Hall":9749,"IES":9750,"Rick":9751,"hr":9752,"rics":9753,"omit":9754,"ropo":9755,"unbiased":9756,"shire":9757,"opath":9758,"Reference":9759,"cycle":9760,"institution":9761,"SHI":9762,"Edits":9763,"Editors":9764,"participation":9765,"Brother":9766,"journals":9767,"Major":9768,"Kel":9769,"Sil":9770,"Same":9771,"fought":9772,"notion":9773,"abase":9774,"19th":9775,"obsess":9776,"aker":9777,"specul":9778,"FACT":9779,"trolls":9780,"operating":9781,"Everything":9782,"Daily":9783,"Croatia":9784,"overwhelming":9785,"Neither":9786,"Pot":9787,"Sel":9788,"zo":9789,"thr":9790,"acies":9791,"ading":9792,"petty":9793,"tric":9794,"coin":9795,"gene":9796,"109":9797,"USELESS":9798,"FACK":9799,"visible":9800,"1991":9801,"respective":9802,"Neil":9803,"fields":9804,"apologise":9805,"succeed":9806,"Micro":9807,"growing":9808,"vehicle":9809,"Econom":9810,"Tube":9811,"Word":9812,"bird":9813,"hill":9814,"sac":9815,"revolution":9816,"une":9817,"comic":9818,"cougar":9819,"german":9820,"1993":9821,"indication":9822,"objects":9823,"window":9824,"SOME":9825,"LOCKS":9826,"bullying":9827,"NNNN":9828,"Palestine":9829,"Georgia":9830,"Certain":9831,"fif":9832,"kno":9833,"piss":9834,"meantime":9835,"hai":9836,"conce":9837,"asel":9838,"igation":9839,"inton":9840,"isms":9841,"ideology":9842,"owns":9843,"worded":9844,"identical":9845,"sheet":9846,"lawyer":9847,"SECUR":9848,"joining":9849,"Ukraine":9850,"comprehensive":9851,"Wood":9852,"subsequent":9853,"BOLLOCKS":9854,"ASSHOLE":9855,"BUS":9856,"Fer":9857,"Kill":9858,"TC":9859,"bian":9860,"dan":9861,"gam":9862,"alum":9863,"dece":9864,"resort":9865,"colour":9866,"tries":9867,"alem":9868,"engaging":9869,"carried":9870,"1997":9871,"patience":9872,"terminology":9873,"drama":9874,"Mongo":9875,"URL":9876,"Cyprus":9877,"opposing":9878,"Surely":9879,"deeply":9880,"Infobox":9881,"SECURITY":9882,"Bab":9883,"DIS":9884,"ICK":9885,"Rog":9886,"Writ":9887,"forb":9888,"loved":9889,"outcome":9890,"Assy":9891,"authent":9892,"COME":9893,"professor":9894,"threaten":9895,"judgment":9896,"tactics":9897,"censored":9898,"District":9899,"ARTICLE":9900,"HOMELAND":9901,"Lic":9902,"bn":9903,"ios":9904,"itative":9905,"agg":9906,"rier":9907,"riot":9908,"regions":9909,"interviews":9910,"errone":9911,"Board":9912,"Service":9913,"Suggest":9914,"teacher":9915,"fresh":9916,"Office":9917,"applicable":9918,"folk":9919,"Duke":9920,"TOMMY":9921,"Iron":9922,"Sho":9923,"Test":9924,"wat":9925,"resh":9926,"acqu":9927,"abled":9928,"Thought":9929,"apped":9930,"Young":9931,"hism":9932,"correction":9933,"park":9934,"Uni":9935,"blah":9936,"ledge":9937,"approval":9938,"159":9939,"committee":9940,"Windows":9941,"portray":9942,"CHEESE":9943,"SECURITYFUCK":9944,"TOMMY2010":9945,"Der":9946,"Nu":9947,"SOR":9948,"Tro":9949,"bureau":9950,"din":9951,"thin":9952,"rend":9953,"lest":9954,"esp":9955,"keting":9956,"ami":9957,"antis":9958,"install":9959,"banning":9960,"breach":9961,"officer":9962,"classic":9963,"humor":9964,"cleaning":9965,"picking":9966,"dropped":9967,"favorite":9968,"expertise":9969,"communicate":9970,"ruled":9971,"Football":9972,"alphabet":9973,"Sikh":9974,"Greg":9975,"Som":9976,"vation":9977,"itism":9978,"proxy":9979,"plom":9980,"bytes":9981,"updating":9982,"derived":9983,"Organ":9984,"Orthodox":9985,"CUNTBAG":9986,"supposedly":9987,"setting":9988,"KKKK":9989,"Alexander":9990,"advantage":9991,"invalid":9992,"Cze":9993,"Done":9994,"Eric":9995,"Rev":9996,"Southern":9997,"cc":9998,"cro":9999,"dance":10000,"wis":10001,"retired":10002,"assure":10003,"feet":10004,"url":10005,"Season":10006,"Doing":10007,"plays":10008,"Books":10009,"Order":10010,"Exp":10011,"1995":10012,"IMD":10013,"replacement":10014,"initially":10015,"adequate":10016,"encyclopaedia":10017,"Bru":10018,"Cle":10019,"Four":10020,"Line":10021,"Nations":10022,"dut":10023,"mountain":10024,"ras":10025,"rhe":10026,"reversions":10027,"esy":10028,"pray":10029,"118":10030,"gging":10031,"mono":10032,"......":10033,"assertions":10034,"Policies":10035,"Olym":10036,"Water":10037,"kit":10038,"mil":10039,"onian":10040,"atures":10041,"congrat":10042,"iring":10043,"urban":10044,"instances":10045,"gotta":10046,"descriptions":10047,"kinda":10048,"True":10049,"OMIT":10050,"philosoph":10051,"bbish":10052,"permanently":10053,"Democratic":10054,"Probably":10055,"PL":10056,"Rod":10057,"SN":10058,"Sus":10059,"eight":10060,"wave":10061,"river":10062,"aps":10063,"hip":10064,"logging":10065,"Prov":10066,"133":10067,"surface":10068,"tonight":10069,"nominations":10070,"practical":10071,"HELL":10072,"permanent":10073,"strictly":10074,"uguese":10075,"Nar":10076,"PU":10077,"Taj":10078,"scare":10079,"tos":10080,"stain":10081,"stance":10082,"agina":10083,"adjust":10084,"107":10085,"Stalin":10086,"worldwide":10087,"Edward":10088,"scen":10089,"weekend":10090,"burn":10091,"horrible":10092,"journalist":10093,"Rights":10094,"regularly":10095,"travel":10096,"Facebook":10097,"4th":10098,"Cel":10099,"Table":10100,"Vide":10101,"ein":10102,"fits":10103,"gro":10104,"mers":10105,"sending":10106,"tha":10107,"selling":10108,"seperate":10109,"mology":10110,"shif":10111,"raising":10112,"essential":10113,"posing":10114,"139":10115,"families":10116,"Arabs":10117,"copies":10118,"Jimmy":10119,"motivated":10120,"buddy":10121,"Five":10122,"Rome":10123,"VOMIT":10124,"dar":10125,"infer":10126,"rex":10127,"oral":10128,"aya":10129,"lian":10130,"union":10131,"kel":10132,"comply":10133,"plans":10134,"parame":10135,"Stan":10136,"149":10137,"162":10138,"harsh":10139,"Josh":10140,"1994":10141,"quotations":10142,"empire":10143,"camp":10144,"participants":10145,"typically":10146,"suspected":10147,"reduced":10148,"persistent":10149,"heritage":10150,"Cra":10151,"Mind":10152,"RM":10153,"Women":10154,"jar":10155,"mud":10156,"pit":10157,"uan":10158,"whe":10159,"\"\":":10160,"acces":10161,"rol":10162,"tery":10163,"ortion":10164,"price":10165,"rubbish":10166,"YOUBOLLOCKS":10167,"register":10168,"Thats":10169,"reviewer":10170,"Mean":10171,"patient":10172,"effectively":10173,"Prime":10174,"performed":10175,"revisions":10176,"Possibly":10177,"massacre":10178,"complicated":10179,"guidance":10180,"CNN":10181,"Especially":10182,"Tra":10183,"Yep":10184,"esis":10185,"superior":10186,"ams":10187,"outright":10188,"Ref":10189,"Conserv":10190,"aza":10191,"distance":10192,"Serbs":10193,"Carol":10194,"amounts":10195,"Everyone":10196,"Signpost":10197,"Egypt":10198,"perceived":10199,"accomplish":10200,"dangerous":10201,"PIECE":10202,"shor":10203,"nony":10204,"colors":10205,"presenting":10206,"UNBLOCK":10207,"socks":10208,"worthless":10209,"phrases":10210,"reflects":10211,"broadcast":10212,"DUE":10213,"fabric":10214,"Ari":10215,"Live":10216,"Light":10217,"Ni":10218,"Pu":10219,"batt":10220,"nce":10221,"leaves":10222,"arre":10223,"adm":10224,"usalem":10225,"proving":10226,"holi":10227,"iley":10228,"logists":10229,"Stat":10230,"publicly":10231,"distur":10232,"Sometimes":10233,"clearer":10234,"Agreed":10235,"1996":10236,"appearing":10237,"hypothesis":10238,"dictator":10239,"Education":10240,"disgusting":10241,"avoided":10242,"HD":10243,"RI":10244,"asia":10245,"vegg":10246,"whilst":10247,"default":10248,"vian":10249,"grate":10250,"INFORM":10251,"releases":10252,"166":10253,"1992":10254,"shape":10255,"speaker":10256,"independence":10257,"intentionally":10258,"nuclear":10259,"Citing":10260,"Auto":10261,"synthesis":10262,"Tamil":10263,"Hur":10264,"KING":10265,"Mun":10266,"Wars":10267,"cs":10268,"rick":10269,"sided":10270,"atri":10271,"nox":10272,"lied":10273,"anta":10274,"iana":10275,"portal":10276,"prem":10277,"attached":10278,"warrior":10279,"differently":10280,"radical":10281,"representing":10282,"elected":10283,"concernThanks":10284,"ietales":10285,"veggietales":10286,"Band":10287,"Cir":10288,"Categ":10289,"Los":10290,"Sin":10291,"dum":10292,"iron":10293,"bodies":10294,"Removed":10295,"kingdom":10296,"104":10297,"brac":10298,"laid":10299,"classical":10300,"watched":10301,"CCCC":10302,"Blocked":10303,"complaining":10304,"influenced":10305,"Basically":10306,"salute":10307,"annoy":10308,"Civility":10309,"discipl":10310,"Cub":10311,"Jen":10312,"Sit":10313,"Tan":10314,"UC":10315,"WAY":10316,"Ya":10317,"forcing":10318,"suicide":10319,"undoing":10320,"untrue":10321,"ila":10322,"preference":10323,"ophob":10324,"saved":10325,"204":10326,"ideal":10327,"fourth":10328,"Admins":10329,"straw":10330,"unciation":10331,"IQ":10332,"Sad":10333,"Tot":10334,"aus":10335,"nish":10336,"arb":10337,"aded":10338,"ches":10339,"tely":10340,"correspond":10341,"111":10342,"112":10343,"Ann":10344,"tension":10345,"bib":10346,"instru":10347,"Contin":10348,"wonderful":10349,"accordingly":10350,"consistently":10351,"buildings":10352,"Romanian":10353,"towns":10354,"anoy":10355,"motives":10356,"fuckfuckfuckfuck":10357,"Build":10358,"shooting":10359,"Business":10360,"EC":10361,"Lim":10362,"Pash":10363,"hous":10364,"hiding":10365,"vard":10366,"aland":10367,"\"\"(":10368,"cease":10369,"mos":10370,"exchange":10371,"custo":10372,"attend":10373,"warming":10374,"105":10375,"Secret":10376,"Docu":10377,"versies":10378,"138":10379,"172":10380,"Final":10381,"Phys":10382,"surprising":10383,"Minister":10384,"predict":10385,"ancestryFuck":10386,"CIV":10387,"DA":10388,"Dream":10389,"DNA":10390,"iting":10391,"endo":10392,"rob":10393,"verification":10394,"vie":10395,"YouTube":10396,"vandalise":10397,"Stub":10398,"FAI":10399,"STILL":10400,"miles":10401,"validity":10402,"proposing":10403,"ruling":10404,"affected":10405,"Swedish":10406,"Picture":10407,"empty":10408,"Village":10409,"itable":10410,"sees":10411,"chief":10412,"aman":10413,"ilater":10414,"intim":10415,"Repe":10416,"Removing":10417,"desp":10418,"twist":10419,"writings":10420,"ALIST":10421,"idding":10422,"fortunate":10423,"Requested":10424,"painting":10425,"economy":10426,"eeee":10427,"doctr":10428,"Song":10429,"fro":10430,"tough":10431,"vass":10432,"toe":10433,"unreferenced":10434,"istry":10435,"hook":10436,"guest":10437,"assass":10438,"ATOR":10439,"instit":10440,"186":10441,"147":10442,"bug":10443,"borrow":10444,"patent":10445,"CUNTS":10446,"amongst":10447,"motion":10448,"recommended":10449,"Jerusalem":10450,"labeled":10451,"pleasure":10452,"suddenly":10453,"Florida":10454,"Bank":10455,"Brian":10456,"Si":10457,"Ul":10458,"WAL":10459,"southern":10460,"thic":10461,"altogether":10462,"Theory":10463,"actively":10464,"singer":10465,"Engine":10466,"appropriately":10467,"improper":10468,"Atl":10469,"TABTAB":10470,"Mormon":10471,"blatantly":10472,"utterly":10473,"HHHH":10474,"ollywood":10475,"Ak":10476,"Dal":10477,"Gil":10478,"PN":10479,"dad":10480,"lord":10481,"pump":10482,"”.":10483,"oro":10484,"stations":10485,"defe":10486,"abilities":10487,"soap":10488,"bots":10489,"subscri":10490,"factors":10491,"restoring":10492,"spital":10493,"127":10494,"176":10495,"gery":10496,"historically":10497,"covering":10498,"religions":10499,"Sincerely":10500,"hostile":10501,"modify":10502,"fascist":10503,"INFORMATION":10504,"Click":10505,"Py":10506,"PRE":10507,"SY":10508,"milit":10509,"sample":10510,"orum":10511,"alous":10512,"agger":10513,"hable":10514,"chester":10515,"Wild":10516,"custom":10517,"licker":10518,"193":10519,"observed":10520,"copyvio":10521,"180":10522,"minds":10523,"qualifies":10524,"promotes":10525,"crats":10526,"Despite":10527,"advised":10528,"barely":10529,"!).":10530,"Bon":10531,"GM":10532,"Mich":10533,"Master":10534,"lacks":10535,"inherent":10536,"the_":10537,"losing":10538,"pel":10539,"iry":10540,"igan":10541,"upper":10542,"dislike":10543,"tie":10544,"Intell":10545,"121":10546,"125":10547,"legisl":10548,"254":10549,"roman":10550,"Guard":10551,"physic":10552,"incivility":10553,"spoke":10554,"consult":10555,"advertisement":10556,"220":10557,"Case":10558,"Files":10559,"Jon":10560,"Lake":10561,"Mot":10562,"MAN":10563,"Snow":10564,"SBS":10565,"WAR":10566,"hen":10567,"tort":10568,"eds":10569,"ples":10570,"coast":10571,"cooperation":10572,"awesome":10573,"northern":10574,"sitting":10575,"crash":10576,"membership":10577,"classes":10578,"contacted":10579,"BOB":10580,"store":10581,"exclusively":10582,"dependent":10583,"PEO":10584,"hatred":10585,"competit":10586,"revealed":10587,"deemed":10588,"400":10589,"Av":10590,"Id":10591,"Sky":10592,"TY":10593,"fuel":10594,"ique":10595,"km":10596,"wow":10597,"infringe":10598,"Ass":10599,"finds":10600,"centric":10601,"tested":10602,"226":10603,"communities":10604,"251":10605,"hahaha":10606,"Johnson":10607,"Geo":10608,"homine":10609,"cleaned":10610,"chair":10611,"interpretations":10612,"surprise":10613,"Merge":10614,"courtesy":10615,"sweet":10616,"rapid":10617,"management":10618,"scheme":10619,"Taiwan":10620,"inspired":10621,"PEOPLE":10622,"Cas":10623,"Pun":10624,"lf":10625,"tid":10626,"ordered":10627,"alog":10628,"icip":10629,"forgotten":10630,"wear":10631,"weasel":10632,"tract":10633,"cler":10634,"renaming":10635,"ucks":10636,"instein":10637,"brings":10638,"numer":10639,"importantly":10640,"nationalism":10641,"anime":10642,"substance":10643,"System":10644,"psych":10645,"occupied":10646,"route":10647,"thoroughly":10648,"Radio":10649,"Az":10650,"FBI":10651,"Kim":10652,"Search":10653,"Terror":10654,"Wr":10655,"fals":10656,"inj":10657,"replacing":10658,"nom":10659,"iams":10660,"poet":10661,"cking":10662,"pertain":10663,"coherent":10664,"whats":10665,"angel":10666,"oty":10667,"crew":10668,"gency":10669,"personality":10670,"MENT":10671,"porn":10672,"authoritative":10673,"calcul":10674,"Adding":10675,"confirmation":10676,"conducted":10677,"combined":10678,"Supreme":10679,"Portuguese":10680,"formatted":10681,"Professor":10682,"competition":10683,"presumably":10684,"authentic":10685,"Dem":10686,"IRA":10687,"Pir":10688,"zation":10689,"bered":10690,"mel":10691,"loose":10692,"ista":10693,"outs":10694,"ura":10695,"ups":10696,"rename":10697,"194":10698,"logs":10699,"227":10700,"declare":10701,"MAO":10702,"educational":10703,"alternate":10704,"briefly":10705,"Flag":10706,"absence":10707,"enforcement":10708,"Modern":10709,"Controver":10710,"Pacific":10711,"217":10712,"Had":10713,"HEL":10714,"NHR":10715,"SOUR":10716,"ey":10717,"ien":10718,"overt":10719,"skept":10720,"zens":10721,"erase":10722,"toman":10723,"armed":10724,"201":10725,"summer":10726,"134":10727,"tons":10728,"incorrectly":10729,"SPAN":10730,"score":10731,"HAHAHAHAHAHAHAHAHAHAHAHAHAHAHAHA":10732,"Egypti":10733,"HS2010":10734,"Intellig":10735,"NHRHS2010":10736,"Det":10737,"JIM":10738,"OW":10739,"adult":10740,"entered":10741,"cancer":10742,"disagrees":10743,"Arthur":10744,"merger":10745,"Protest":10746,"generic":10747,"229":10748,"involves":10749,"Boo":10750,"remained":10751,"planned":10752,"expanding":10753,"depends":10754,"Singh":10755,"announce":10756,"Bradbury":10757,"Title":10758,"Users":10759,"grapher":10760,"Cho":10761,"Domin":10762,"ccer":10763,"pson":10764,"rush":10765,"iner":10766,"inqu":10767,"stab":10768,"cean":10769,"exposed":10770,"quiet":10771,"hib":10772,"Week":10773,"counted":10774,"audience":10775,"incorporated":10776,"Kevin":10777,"von":10778,"revers":10779,"stic":10780,"ride":10781,"unilater":10782,"bollocks":10783,"Alpha":10784,"Proble":10785,"COM":10786,"weezer":10787,"recognised":10788,"contract":10789,"grees":10790,"flags":10791,"Sciento":10792,"Better":10793,"BERT":10794,"grateful":10795,"?).":10796,"Ext":10797,"Ki":10798,"Loc":10799,"WA":10800,"russ":10801,"incomplete":10802,"fron":10803,"trash":10804,"portions":10805,"preceding":10806,"208":10807,"Chuck":10808,"continually":10809,"184":10810,"foundation":10811,"Clinton":10812,"drag":10813,"comfortable":10814,"Records":10815,"SPANISH":10816,"CL":10817,"EK":10818,"LMAO":10819,"Rose":10820,"Tw":10821,"Vis":10822,"Yo":10823,"hus":10824,"mult":10825,"incess":10826,"reform":10827,"device":10828,"roots":10829,"aband":10830,"lif":10831,"sued":10832,"pertin":10833,"1950":10834,"oblig":10835,"Doctor":10836,"137":10837,"Commission":10838,"yellow":10839,"delanoy":10840,"Team":10841,"Williams":10842,"electric":10843,"cellspacing":10844,"satisfact":10845,"depending":10846,"CENTR":10847,"Les":10848,"Sri":10849,"Ven":10850,"_and":10851,"bish":10852,"dab":10853,"ego":10854,"jab":10855,"uct":10856,"inal":10857,"inct":10858,"replies":10859,"lyrics":10860,"estly":10861,"pler":10862,"grant":10863,"blow":10864,"asses":10865,"tted":10866,"THERE":10867,"typo":10868,"synony":10869,"Sea":10870,"124":10871,"Prop":10872,"confuse":10873,"purch":10874,"credibly":10875,"venture":10876,"ROBERT":10877,"1989":10878,"Columb":10879,"participated":10880,"Syria":10881,"achieved":10882,"WTC":10883,"Satur":10884,"photographs":10885,"plagiarism":10886,"BUSH":10887,"DAY":10888,"Fine":10889,"GIVE":10890,"Hop":10891,"Pi":10892,"urious":10893,"yers":10894,"reverse":10895,"ender":10896,"hem":10897,"noting":10898,"imal":10899,"Recogn":10900,"Ask":10901,"regret":10902,"160":10903,"resulted":10904,"MORE":10905,"falsely":10906,"DOWN":10907,"jobs":10908,"Resol":10909,"replaceable":10910,"immediate":10911,"Desk":10912,"Country":10913,"Author":10914,"Considering":10915,"GNU":10916,"surrounding":10917,"Language":10918,"rhetor":10919,"ATHE":10920,"][":10921,"dress":10922,"jur":10923,"edge":10924,"detect":10925,"dozens":10926,"The_":10927,"boards":10928,"assa":10929,"1945":10930,"akh":10931,"NOR":10932,"140":10933,"Command":10934,"handled":10935,"repeating":10936,"equip":10937,"Similar":10938,"investigations":10939,"combination":10940,"panic":10941,"throwing":10942,"advocate":10943,"incidence":10944,"Bosnia":10945,"Amazon":10946,"europe":10947,"Document":10948,"Dev":10949,"diction":10950,"atom":10951,"archa":10952,"suf":10953,"ira":10954,"anyways":10955,"iger":10956,"codes":10957,"spending":10958,"aug":10959,"chemist":10960,"relate":10961,"noteworthy":10962,"checkuser":10963,"crite":10964,"harder":10965,"Agree":10966,"Pope":10967,"volume":10968,"deaths":10969,"ambigu":10970,"Corps":10971,"destruction":10972,"Davis":10973,"tarian":10974,"Administrator":10975,"duplicate":10976,"onomy":10977,"department":10978,"phenomenon":10979,"excessive":10980,"intimid":10981,"_and_":10982,"Gor":10983,"Mother":10984,"hall":10985,"sor":10986,"insight":10987,"ati":10988,"arrange":10989,"beth":10990,"aga":10991,"outing":10992,"Andre":10993,"archy":10994,"banner":10995,"headed":10996,"graphics":10997,"Moon":10998,"Britann":10999,"ethical":11000,"clarified":11001,"footnotes":11002,"HOW":11003,"SAGET":11004,"freak":11005,"Magazine":11006,"Jean":11007,"employed":11008,"ULLMANN":11009,"Microsoft":11010,"abandon":11011,"213":11012,"?.":11013,"Pages":11014,"RC":11015,"THe":11016,"eating":11017,"alt":11018,"resign":11019,"cos":11020,"astro":11021,"Alan":11022,"regime":11023,"Delete":11024,"Proposed":11025,"Road":11026,"studied":11027,"Donald":11028,"1988":11029,"mmmm":11030,"BEEN":11031,"computers":11032,"Added":11033,"villages":11034,"implying":11035,"linguistic":11036,"consequences":11037,"Hawai":11038,"Incidents":11039,"embarrass":11040,"chemical":11041,"advanced":11042,"ATHEIST":11043,"800":11044,"DER":11045,"Naming":11046,"Ren":11047,"Rail":11048,"Scient":11049,"budd":11050,"lately":11051,"yr":11052,"itter":11053,"verb":11054,"ntax":11055,"namely":11056,"synd":11057,"counting":11058,"ultimately":11059,"cric":11060,"province":11061,"boring":11062,"Series":11063,"participating":11064,"huh":11065,"micro":11066,"senior":11067,"alternatives":11068,"teaching":11069,"Sockpuppet":11070,"hazel":11071,"finger":11072,"illustrate":11073,"punishment":11074,"Based":11075,"Each":11076,"HP":11077,"Liz":11078,"LIT":11079,"Wit":11080,"bun":11081,"pm":11082,"degrees":11083,"unreasonable":11084,"unusual":11085,"withdraw":11086,"nego":11087,"pedophi":11088,"endment":11089,"sincerely":11090,"tribes":11091,"FAQ":11092,"defines":11093,"researchers":11094,"223":11095,"shitFuck":11096,"Boston":11097,"Cool":11098,"shots":11099,"affiliated":11100,"privileges":11101,">>":11102,"Cry":11103,"Dub":11104,"MD":11105,"ients":11106,"sand":11107,"|}":11108,"alo":11109,"iced":11110,"sta":11111,"aces":11112,"Chal":11113,"Stone":11114,"131":11115,"situations":11116,"HAHAHA":11117,"locations":11118,"onym":11119,"autom":11120,"pasted":11121,"victory":11122,"charts":11123,"compliance":11124,"jews":11125,"bizarre":11126,"33333333":11127,"mobile":11128,"hominem":11129,"211":11130,"CHA":11131,"Gun":11132,"Ice":11133,"Nik":11134,"bis":11135,"ez":11136,"sv":11137,"thew":11138,"accent":11139,"rip":11140,"tight":11141,"ounding":11142,"Incl":11143,"Remo":11144,"205":11145,"206":11146,"ensively":11147,"copying":11148,"questioned":11149,"178":11150,"classified":11151,"Police":11152,"races":11153,"1980":11154,"slap":11155,"insulted":11156,"nigga":11157,"models":11158,"sensitive":11159,"BYE":11160,"taste":11161,"exercise":11162,"arbitrary":11163,"CENTRALIST":11164,"Bear":11165,"Dictionary":11166,"Games":11167,"Mach":11168,"SAID":11169,"ause":11170,"french":11171,"lers":11172,"isol":11173,"nose":11174,"det":11175,"devoted":11176,"convey":11177,"impress":11178,"impartial":11179,"pole":11180,"males":11181,"viewpoints":11182,"overly":11183,"145":11184,"layout":11185,"ails":11186,"Peace":11187,"openly":11188,"scandal":11189,"convicted":11190,"psychology":11191,"Academy":11192,"Certainly":11193,"Video":11194,"CIVIL":11195,"CENTRALISTSTUPID":11196,"Future":11197,"GR":11198,"PER":11199,"cats":11200,"alus":11201,"icon":11202,"nol":11203,"aco":11204,"unfortunate":11205,"ateur":11206,"guaran":11207,"possess":11208,"ryan":11209,"creates":11210,"INE":11211,"Ange":11212,"tenance":11213,"followers":11214,"244":11215,"232":11216,"WHERE":11217,"1986":11218,"trend":11219,"CAUSE":11220,"Hungarian":11221,"rrrr":11222,"costs":11223,"Consensus":11224,"competent":11225,"observation":11226,"wrestling":11227,"strength":11228,"GW":11229,"Kam":11230,"cars":11231,"sic":11232,"incredibly":11233,"reconsider":11234,"forgive":11235,"ctic":11236,"fox":11237,"191":11238,"misinformation":11239,"Islands":11240,"Dog":11241,"singles":11242,"lavery":11243,"distr":11244,"troops":11245,"retch":11246,"replying":11247,"clubs":11248,"Newsletter":11249,"collaboration":11250,"YYYY":11251,"politician":11252,"nickname":11253,"precedent":11254,"crisis":11255,"Czech":11256,"negoti":11257,"Cant":11258,"Einstein":11259,"Girl":11260,"Hol":11261,"^^":11262,"hn":11263,"youth":11264,"oft":11265,"offee":11266,"concise":11267,"comed":11268,"disrup":11269,"subsection":11270,"==\"":11271,"!!!!!!!!!":11272,"signs":11273,"mont":11274,"marketing":11275,"155":11276,"fired":11277,"visited":11278,"240":11279,"Justin":11280,"translations":11281,"allegation":11282,"stock":11283,"violent":11284,"sufficiently":11285,"Copyrights":11286,"Sarah":11287,"Valley":11288,"Brazil":11289,"compatible":11290,"antisem":11291,"Dri":11292,"Freedom":11293,"Lab":11294,"Tar":11295,"thed":11296,"oured":11297,"icient":11298,"bec":11299,"moon":11300,"atell":11301,"servers":11302,"vandalised":11303,"invasion":11304,"Bey":11305,"Program":11306,"135":11307,"Mario":11308,"processes":11309,"Disput":11310,"contested":11311,"successfully":11312,"intentional":11313,"privacy":11314,"digital":11315,"secution":11316,"Interesting":11317,"Guru":11318,"WALES":11319,"Cold":11320,"Gwen":11321,"Jam":11322,"Oreg":11323,"Tour":11324,"ckey":11325,"theme":11326,"abused":11327,"chest":11328,"prost":11329,"proportion":11330,"genres":11331,"Several":11332,"Wikiproject":11333,"defining":11334,"170":11335,"nationalistic":11336,"ICA":11337,"anny":11338,"777":11339,"incidents":11340,"strip":11341,"passion":11342,"brothers":11343,"billion":11344,"Movement":11345,"accessible":11346,"Clean":11347,"EVER":11348,"Hay":11349,"Slim":11350,"bac":11351,"nan":11352,"inary":11353,"enem":11354,"semit":11355,"neut":11356,"peror":11357,"fet":11358,"boo":11359,"tip":11360,"115":11361,"WikiLove":11362,"signing":11363,"182":11364,"azines":11365,"transport":11366,"introducing":11367,"documentary":11368,"***":11369,"punished":11370,"assumptions":11371,"democratic":11372,"Chief":11373,"Virginia":11374,"weapon":11375,"weapons":11376,"volunteer":11377,"mathematical":11378,"Columbia":11379,"Bh":11380,"Bold":11381,"Wrest":11382,"cia":11383,"oret":11384,"sought":11385,"erased":11386,"lob":11387,"una":11388,"outline":11389,"Indo":11390,"offering":11391,"userbox":11392,"102":11393,"countless":11394,"interaction":11395,"headings":11396,"userspace":11397,"255":11398,"differ":11399,"ICE":11400,"Welsh":11401,"1984":11402,"scholarship":11403,"Turkic":11404,"Official":11405,"satisfied":11406,"FIRED":11407,"substantiated":11408,"revised":11409,"Socialist":11410,"Response":11411,"License":11412,"HIS":11413,"Wait":11414,"bust":11415,"cous":11416,"emo":11417,"flying":11418,"rally":11419,"sil":11420,"adhere":11421,"wider":11422,"conscious":11423,"paralle":11424,"185":11425,"considerable":11426,"surname":11427,"indicating":11428,"AAA":11429,"aneous":11430,"experiences":11431,"faced":11432,"Early":11433,"temporarily":11434,"ANNON":11435,"universal":11436,"monitor":11437,"database":11438,"Division":11439,"gallery":11440,"Content":11441,"occasionally":11442,"pertinent":11443,"Date":11444,"GH":11445,"Glad":11446,"OTHER":11447,"Sah":11448,"Won":11449,"bone":11450,"tu":11451,"aler":11452,"selection":11453,"consum":11454,"persu":11455,"fold":11456,"manif":11457,"106":11458,"syntax":11459,"Anna":11460,"presents":11461,"242":11462,"SHANNON":11463,"Orange":11464,"ARY":11465,"ugs":11466,"nicely":11467,"diplom":11468,":#;":11469,"popularity":11470,"?!?!":11471,"divisions":11472,"narrative":11473,"territories":11474,"motivation":11475,"shorter":11476,"Categories":11477,"enemies":11478,",”":11479,"Due":11480,"Daw":11481,"Eh":11482,"bought":11483,"fy":11484,"gian":11485,"lon":11486,"rever":11487,"reception":11488,"iser":11489,"llah":11490,"shad":11491,"perception":11492,"plural":11493,"coach":11494,"cohol":11495,"angers":11496,"ums":11497,"raj":11498,"ansas":11499,"crete":11500,"rug":11501,"offend":11502,"REVER":11503,"spite":11504,"188":11505,"156":11506,"161":11507,"ranking":11508,"controversies":11509,"muslim":11510,"Enter":11511,"magazines":11512,"socialist":11513,"naturally":11514,"combat":11515,"sanctions":11516,"gained":11517,"Kurds":11518,"EEEE":11519,"Toronto":11520,"________________________________":11521,"Network":11522,"pronounced":11523,"maxim":11524,"Azerbaijan":11525,"Britannica":11526,"Removal":11527,"Brand":11528,"Dom":11529,"Dig":11530,"MF":11531,"Mold":11532,"Museum":11533,"Qur":11534,"SR":11535,"VU":11536,"repor":11537,"deals":11538,"rolling":11539,"rians":11540,"fruit":11541,"excus":11542,"arden":11543,"udge":11544,"oph":11545,"ISTR":11546,"questioning":11547,"153":11548,"171":11549,"169":11550,"promised":11551,"248":11552,"Bollocks":11553,"ugal":11554,"ABC":11555,"eastern":11556,"credits":11557,"Simply":11558,"Apple":11559,"bullet":11560,"maintained":11561,"Metro":11562,"Biography":11563,"Attack":11564,"Bulgar":11565,"Wilson":11566,"Zealand":11567,"Francisco":11568,"Ottoman":11569,"AV":11570,"Ka":11571,"Lind":11572,"Lew":11573,"dun":11574,"nine":11575,"yle":11576,"thrown":11577,"updates":11578,"ews":11579,"gee":11580,"Ancient":11581,"mony":11582,"confident":11583,"235":11584,"failing":11585,"alien":11586,"constructed":11587,"driving":11588,"driven":11589,"baseball":11590,"increased":11591,"threads":11592,"drugs":11593,"Tibet":11594,"Culture":11595,"Channel":11596,"erroneous":11597,"9000":11598,"Ent":11599,"Full":11600,"Town":11601,"brid":11602,"mies":11603,"museum":11604,"rison":11605,"inev":11606,"severe":11607,"\"\"-":11608,"acce":11609,"wearing":11610,"untagged":11611,"implied":11612,"impressed":11613,"shed":11614,"worship":11615,"worries":11616,"Replace":11617,"corner":11618,"203":11619,"consent":11620,"partner":11621,"HAS":11622,"187":11623,"insane":11624,"ordan":11625,"respectful":11626,"stays":11627,"Spec":11628,"paying":11629,"Shouldn":11630,"Macedonians":11631,"Albanians":11632,"Jersey":11633,"fundamentally":11634,"procedures":11635,"pissed":11636,"browser":11637,"HERO":11638,"scrut":11639,"governments":11640,"Ball":11641,"Hand":11642,"Saint":11643,"Tok":11644,"TING":11645,"nas":11646,"tang":11647,"asi":11648,"lyn":11649,"meta":11650,"declar":11651,"rov":11652,"abstr":11653,"condem":11654,"hio":11655,"chez":11656,"189":11657,"generated":11658,"charged":11659,"237":11660,"council":11661,"breaks":11662,"Code":11663,"answering":11664,"operations":11665,"difficulty":11666,"foolish":11667,"growth":11668,"corporate":11669,"................":11670,"deliberate":11671,"Finding":11672,"frustrated":11673,"Philipp":11674,"Eliza":11675,"Beatles":11676,"Lebanon":11677,"elaborate":11678,"Saturday":11679,"Oregon":11680,"Fish":11681,"Lith":11682,"jay":11683,"kidding":11684,"mort":11685,"inhabit":11686,"infinite":11687,"islam":11688,"ori":11689,"agent":11690,"eties":11691,"uled":11692,"discredit":11693,"iva":11694,"Health":11695,"opponents":11696,"logically":11697,"Isles":11698,"legend":11699,"joint":11700,"Justice":11701,"paren":11702,"disagreements":11703,"exceptions":11704,":#\"\"":11705,"exclusive":11706,"blanked":11707,"MOTHER":11708,"Lastly":11709,"coward":11710,"Historical":11711,"Sweden":11712,"Bow":11713,"Jr":11714,"Kong":11715,"LC":11716,"Lev":11717,"Raw":11718,"Revolution":11719,"Sta":11720,"eper":11721,"nit":11722,"vy":11723,"rep":11724,"ora":11725,"orney":11726,"hehe":11727,"haw":11728,"ndar":11729,"traff":11730,"bogus":11731,"silence":11732,"manager":11733,"owners":11734,"awful":11735,"132":11736,"seemingly":11737,"nesses":11738,"carto":11739,"DOES":11740,"containing":11741,"Enjoy":11742,"ketball":11743,"Simple":11744,"motor":11745,"infoboxes":11746,"Communist":11747,"DRINK":11748,"Scottish":11749,"politicians":11750,"flawed":11751,"ashamed":11752,"automated":11753,",,":11754,"214":11755,"Cand":11756,"FS":11757,"Gl":11758,"Kho":11759,"Wol":11760,"aur":11761,"labor":11762,"zes":11763,"in_":11764,"rey":11765,"eda":11766,"leag":11767,"encoun":11768,"heck":11769,"unaware":11770,"ils":11771,"actress":11772,"igen":11773,"india":11774,"ucky":11775,"Argent":11776,"researched":11777,"Anyways":11778,"knowledgeable":11779,"operate":11780,"suffer":11781,"cretion":11782,"attribution":11783,"lady":11784,"Honestly":11785,")(":11786,"215":11787,"Deve":11788,"Ont":11789,"gence":11790,"ike":11791,"soul":11792,"spring":11793,"thumb":11794,"inconsistent":11795,"ende":11796,"icult":11797,"\"\"),":11798,"abortion":11799,"unfounded":11800,"neck":11801,"olas":11802,"evid":11803,"ruining":11804,"listening":11805,"REAT":11806,"cheers":11807,"phase":11808,"POWER":11809,"Concer":11810,"versus":11811,"LED":11812,"filter":11813,"functions":11814,"livered":11815,"sooner":11816,"conclude":11817,"sensible":11818,"censoring":11819,"lengthy":11820,"Anglo":11821,"CONT":11822,"Penn":11823,"Armenia":11824,"engineering":11825,"pronunciation":11826,"arrived":11827,"Celtic":11828,"Michigan":11829,"Bull":11830,"Gib":11831,"Ian":11832,"Kent":11833,"Mir":11834,"NAS":11835,"Tal":11836,"faster":11837,"jam":11838,"kan":11839,"tong":11840,"uh":11841,"vary":11842,"wart":11843,"arab":11844,"istical":11845,"bored":11846,"cession":11847,"202":11848,"Assume":11849,"fucked":11850,"meanings":11851,"Contact":11852,"rator":11853,"END":11854,"denying":11855,"profess":11856,"developing":11857,"Work":11858,"diagno":11859,"facto":11860,"applying":11861,"wikis":11862,"bothering":11863,"secular":11864,"ADMINISTR":11865,"Currently":11866,"Film":11867,"academics":11868,"Pashtun":11869,"Ale":11870,"Awards":11871,"Balk":11872,"Fall":11873,"Nich":11874,"Navy":11875,"Um":11876,"Vers":11877,"backs":11878,"resem":11879,"stal":11880,"behave":11881,"widesp":11882,"conference":11883,"arek":11884,"unfree":11885,"lesson":11886,"Whit":11887,"REAL":11888,"wrongly":11889,"cuz":11890,"classification":11891,"OOL":11892,"similarly":11893,"summarize":11894,"divided":11895,"graduate":11896,"homosexuality":11897,"tolerated":11898,"Nigger":11899,"lifted":11900,"Jacob":11901,"Alternatively":11902,"widespread":11903,"Fact":11904,"IZ":11905,"Tay":11906,"bay":11907,"cree":11908,"fed":11909,"swi":11910,"ythe":11911,"indefinite":11912,"isto":11913,"isations":11914,"lee":11915,"stor":11916,"begins":11917,"notified":11918,"lover":11919,"comics":11920,"pert":11921,"trail":11922,"caution":11923,"offers":11924,"partly":11925,"maintenance":11926,"Beck":11927,"experiments":11928,"247":11929,"TOO":11930,"agram":11931,"Listen":11932,"Commonwealth":11933,"Jeho":11934,"Arbcom":11935,";\"\"|":11936,"Jordan":11937,"Might":11938,"cine":11939,"lame":11940,"loud":11941,"odo":11942,"vid":11943,"stretch":11944,"adject":11945,"kies":11946,"ains":11947,"myst":11948,"dismiss":11949,"maker":11950,"otic":11951,"orses":11952,"subpage":11953,"considers":11954,"curren":11955,"Dead":11956,"nedy":11957,"Comple":11958,"179":11959,"discusses":11960,"transcl":11961,"Excuse":11962,"emailed":11963,"malicious":11964,"Monten":11965,"chain":11966,"proposals":11967,"guns":11968,"Sunday":11969,"Techno":11970,"Semitic":11971,"MUD":11972,"Message":11973,"prejudice":11974,"119":11975,"Dur":11976,"Ku":11977,"Nis":11978,"Nation":11979,"Psy":11980,"sli":11981,"slip":11982,"”,":11983,"edalus":11984,"outrage":11985,"sharing":11986,"creative":11987,"Yours":11988,"producing":11989,"228":11990,"decade":11991,"Short":11992,"pursue":11993,"ifiable":11994,"avoiding":11995,"BECAUSE":11996,"dram":11997,"IMHO":11998,"connections":11999,"idiotic":12000,"ILLION":12001,"distribution":12002,"LOLOLOLOLOLOLOLO":12003,"techniques":12004,"Funny":12005,"Sitush":12006,"ADMINISTRATOR":12007,".).":12008,"Base":12009,"BIG":12010,"Mand":12011,"RV":12012,"dicks":12013,"iest":12014,"pens":12015,"sig":12016,"yas":12017,"oration":12018,"ito":12019,"estic":12020,"exagger":12021,"query":12022,"prick":12023,"evening":12024,"warm":12025,"cription":12026,"tense":12027,".\"\"\"":12028,"tribe":12029,"WWII":12030,"void":12031,"164":12032,"PeR":12033,"debates":12034,"pretending":12035,"circle":12036,"000000":12037,"occurs":12038,"Minor":12039,"Daedalus":12040,"collaborative":12041,"swear":12042,"Albania":12043,"convincing":12044,"symbols":12045,"discography":12046,"Friday":12047,"emotional":12048,"technique":12049,"arbcom":12050,"A1":12051,"BANN":12052,"Ig":12053,"Lef":12054,"Ol":12055,"]\"\"":12056,"tank":12057,"zone":12058,"ington":12059,"assem":12060,"abbre":12061,"rix":12062,"boat":12063,"talent":12064,"matical":12065,"117":12066,"twent":12067,"Unblock":12068,"Univers":12069,"probability":12070,"cured":12071,"transparent":12072,"contacting":12073,"Firstly":12074,"deserved":12075,"economics":12076,"occasions":12077,"restricted":12078,"mechanism":12079,"platform":12080,"strategy":12081,"institutions":12082,"borrowed":12083,")‎":12084,".:":12085,"6th":12086,"GS":12087,"Hans":12088,"Mason":12089,"Rap":12090,"hub":12091,"iate":12092,"wich":12093,"yan":12094,"alright":12095,"aret":12096,"rig":12097,"immature":12098,"frust":12099,"ilation":12100,"deletes":12101,"needing":12102,"rub":12103,"tting":12104,"newly":12105,"userboxes":12106,"Alright":12107,"Albert":12108,"centre":12109,"suppress":12110,"presentation":12111,"154":12112,"LLLL":12113,"221":12114,"precious":12115,"ABLE":12116,"complained":12117,"stere":12118,"Anton":12119,"greek":12120,"circumcision":12121,"slowly":12122,"flood":12123,"Calling":12124,"FUCKFUCKFUCKFUCKFUCKFUCKFUCKFUCKFUCKFUCKFUCKFUCKFUCKFUCKFUCKFUCK":12125,"Kelly":12126,"Ontario":12127,"0LL":12128,"Cla":12129,"Rou":12130,"Rab":12131,"Sher":12132,"lis":12133,"vic":12134,"begun":12135,"bearing":12136,"weather":12137,"impose":12138,"mole":12139,"amusing":12140,"istani":12141,"tea":12142,"WiLL":12143,"presume":12144,"raham":12145,"offence":12146,"Change":12147,"pride":12148,"findings":12149,"POS":12150,"indef":12151,"252":12152,"CHO":12153,"Nether":12154,"camera":12155,"TR0LL":12156,"conception":12157,"SuPeR":12158,"Simon":12159,"trees":12160,"gentle":12161,"Summer":12162,"Robin":12163,"CENSOR":12164,"gorith":12165,"aaaaaaaaaaaaaaaaaaaaaaaaaaaaaaaaaaaaaaaaaaaaaaaaaaaaaaaaaaaaaaaa":12166,"uyuyuyuyuyuyuyuyuyuyuyuyuyuyuyuyuyuyuyuyuyuyuyuyuyuyuyuyuyuyuyuy":12167,"nnnnnnnnnnnnnnnnnnnnnnnnnnnnnnnnnnnnnnnnnnnnnnnnnnnnnnnnnnnnnnnn":12168,"yyyyyyyyyyyyyyyyyyyyyyyyyyyyyyyyyyyyyyyyyyyyyyyyyyyyyyyyyyyyyyyy":12169,"protocol":12170,"christian":12171,"dollars":12172,"SuPeRTR0LL":12173,"969":12174,"Kir":12175,"Knight":12176,"Pic":12177,"Sab":12178,"Six":12179,"drun":12180,"grown":12181,"hart":12182,"lined":12183,"rates":12184,"slop":12185,"edic":12186,"orphaned":12187,"bee":12188,"veget":12189,"1930":12190,"visual":12191,"extend":12192,"Indones":12193,"cultures":12194,"clarity":12195,"phrasing":12196,"PhD":12197,"Schol":12198,"WTF":12199,"Kennedy":12200,"restrictions":12201,"Linux":12202,"citizenship":12203,"tytytytytytytytytytytytytytytytytytytytytytytytytytytytytytytyty":12204,"Self":12205,"assault":12206,"Epis":12207,"Hot":12208,"Multi":12209,"bright":12210,"fur":12211,"rus":12212,"vig":12213,"rewriting":12214,"retire":12215,"orious":12216,"lenn":12217,"eno":12218,"stan":12219,"notation":12220,"liest":12221,"sustain":12222,"outdated":12223,"ptive":12224,"preferences":12225,"Inv":12226,"cycl":12227,"cyber":12228,"reliably":12229,"Unsourced":12230,"relates":12231,"turk":12232,"Peer":12233,"credential":12234,"Spir":12235,"aiting":12236,"confirms":12237,"emails":12238,"Archives":12239,"comparing":12240,"Armenians":12241,"Capital":12242,"pleasant":12243,"Saying":12244,"suspicious":12245,"defamatory":12246,"Number":12247,"dynamic":12248,"Recognise":12249,"Bac":12250,"Flo":12251,"LGB":12252,"Must":12253,"ders":12254,"income":12255,"bean":12256,"ribly":12257,"undone":12258,"yourselves":12259,"discretion":12260,"cath":12261,"earned":12262,"Were":12263,"cheap":12264,"misunderstood":12265,"\"\".\"":12266,"invitation":12267,"NOTHING":12268,"183":12269,"Comput":12270,"246":12271,"230":12272,"studio":12273,"resulting":12274,"Shall":12275,"Parliament":12276,"ANKS":12277,"destro":12278,"safety":12279,"Nevertheless":12280,"uuuu":12281,"observations":12282,"Doug":12283,"architecture":12284,"jokes":12285,"Roger":12286,"Scientology":12287,"Angeles":12288,"ACHAN":12289,"Bir":12290,"Mail":12291,"Spring":12292,"Walk":12293,"lk":12294,"nian":12295,"nically":12296,"ole":12297,"ske":12298,"snow":12299,"tam":12300,"intr":12301,"anne":12302,"eria":12303,"secut":12304,"omp":12305,"undid":12306,"coat":12307,"indian":12308,"grasp":12309,"guided":12310,"newbie":12311,"Issue":12312,"Sean":12313,"Security":12314,"boxing":12315,"movements":12316,"officers":12317,"studying":12318,"webpage":12319,"GEOR":12320,"password":12321,"aliel":12322,"Correct":12323,"pushed":12324,"SPI":12325,"trusted":12326,"accidentally":12327,"converted":12328,"anthropo":12329,"BLEACHAN":12330,"analogy":12331,"Province":12332,"BLEACHANHERO":12333,"224":12334,"3D":12335,"Chap":12336,"FT":12337,"Fix":12338,"NJ":12339,"Sounds":12340,"gaming":12341,"sive":12342,"mega":12343,"defeat":12344,"supre":12345,"teous":12346,"prox":12347,"ourselves":12348,"endless":12349,"ensity":12350,"archiving":12351,"bral":12352,"Beli":12353,"157":12354,"Roll":12355,"schedu":12356,"facebook":12357,"1979":12358,"filling":12359,"sequence":12360,"Romania":12361,"Shah":12362,"ederation":12363,"Frankly":12364,"================":12365,"Watson":12366,"alumni":12367,"duty":12368,"Beng":12369,"CI":12370,"Gall":12371,"Hip":12372,"Later":12373,"Wes":12374,"inations":12375,"delivered":12376,"abide":12377,"aine":12378,"plants":12379,"disorder":12380,"deriv":12381,"USER":12382,"generate":12383,"confidence":12384,"rankings":12385,"expires":12386,"nominating":12387,"cutting":12388,"1975":12389,"Dragon":12390,"AIDSAIDS":12391,"awarded":12392,"ancestors":12393,"Hungary":12394,"Brah":12395,"eliminate":12396,"convenience":12397,"neighbor":12398,"sovereign":12399,"NeilN":12400,"HAHAHAH":12401,"LGBT":12402,".),":12403,"218":12404,"Bapt":12405,"Kr":12406,"Kan":12407,"MILLION":12408,"dic":12409,"pad":12410,"pical":12411,"til":12412,"uorum":12413,"atsheet":12414,"algorith":12415,"agers":12416,"therapy":12417,"iran":12418,"expressing":12419,"canon":12420,"disregard":12421,"clan":12422,"addy":12423,"newer":12424,"curry":12425,"oldest":12426,"loaded":12427,"lightgrey":12428,"defence":12429,"Trust":12430,"ricane":12431,"Harvard":12432,"reaching":12433,"concluded":12434,"screw":12435,"traits":12436,"variation":12437,"Medical":12438,"wikipedian":12439,"Mattythe":12440,"pulled":12441,"convenient":12442,"martial":12443,"temperature":12444,"discouraged":12445,"CRAPCRAPCRAPCRAPCRAPCRAPCRAPCRAPCRAPCRAPCRAPCRAPCRAPCRAPCRAPCRAP":12446,"Fatuorum":12447,"tanks":12448,"fighters":12449,"Gamaliel":12450,"Yugoslavia":12451,"Elizabeth":12452,"traffic":12453,"!?":12454,"7th":12455,"Bitch":12456,"EM":12457,"Ever":12458,"Haz":12459,"cabal":12460,"jac":12461,"mc":12462,"noun":12463,"slavery":12464,"wick":12465,"atar":12466,"storm":12467,"adium":12468,"uncited":12469,"keys":12470,"olics":12471,"dissent":12472,"disabled":12473,"minister":12474,"readable":12475,"saving":12476,"styles":12477,"extre":12478,"anni":12479,"1982":12480,"Temple":12481,"traditions":12482,"trained":12483,"Christop":12484,"Citation":12485,"fantasy":12486,"client":12487,"spiritual":12488,"Golden":12489,"genuinely":12490,"resistance":12491,"dialogue":12492,"lliant":12493,"Assyrian":12494,"Mattythewhite":12495,"CES":12496,"COR":12497,"ET":12498,"NR":12499,"Ohio":12500,"Suck":12501,"SAN":12502,"Shad":12503,"Var":12504,"Wis":12505,"ape":12506,"bilities":12507,"cf":12508,"fusion":12509,"sne":12510,"uz":12511,"uating":12512,"inch":12513,"recru":12514,"onen":12515,"theoret":12516,"atmo":12517,"stig":12518,"agency":12519,"entious":12520,"usal":12521,"riots":12522,"provoc":12523,"irrit":12524,"disgrace":12525,"coincidence":12526,"timeline":12527,"atty":12528,"attended":12529,"sysop":12530,"messed":12531,"143":12532,"ultimate":12533,"breath":12534,"extensively":12535,"Norris":12536,"1987":12537,"IONS":12538,"relationships":12539,"FIRE":12540,"rers":12541,"tournam":12542,"hairy":12543,"subsequently":12544,"discrimination":12545,"Political":12546,"Faith":12547,"residents":12548,"Standard":12549,"Slavic":12550,"prohibited":12551,"defeated":12552,"juris":12553,"Card":12554,"Fight":12555,"Learn":12556,"Nl":12557,"Nav":12558,"SV":12559,"Sid":12560,"borders":12561,"cute":12562,"crop":12563,"eu":12564,"eats":12565,"session":12566,"retri":12567,"revol":12568,"onka":12569,"isa":12570,"escal":12571,"icy":12572,"notify":12573,"suits":12574,"pleased":12575,"fection":12576,"worried":12577,"disagreed":12578,"REF":12579,"sincere":12580,"LOW":12581,"136":12582,"241":12583,"234":12584,"Indians":12585,"histories":12586,"ICS":12587,"anka":12588,"guessing":12589,"volunt":12590,"1970":12591,"PRICK":12592,"leadership":12593,"Mexican":12594,"frustrating":12595,"initiated":12596,"shadow":12597,"Bib":12598,"Bbb":12599,"Hong":12600,"TED":12601,"rv":12602,"remed":12603,"ativity":12604,"itor":12605,"aced":12606,"wire":12607,"haust":12608,"chen":12609,"rival":12610,"uninvolved":12611,"canvass":12612,"ulf":12613,"raw":12614,"ansk":12615,"mates":12616,"partially":12617,"everyday":12618,"identifying":12619,"THEAD":12620,"Dont":12621,"passes":12622,"judging":12623,"Steven":12624,"Blocking":12625,"Harris":12626,"burden":12627,"(~~~~).":12628,"visiting":12629,"SAY":12630,"maintaining":12631,"attract":12632,"atheist":12633,"iterate":12634,"queries":12635,"crowd":12636,"Repeat":12637,"chemistry":12638,"Lithuan":12639,"Ell":12640,"FIN":12641,"Hollywood":12642,"Race":12643,"YES":12644,"wal":12645,"orbit":12646,"alcohol":12647,"stamp":12648,"unhelpful":12649,"amateur":12650,"isters":12651,"wasnt":12652,"permissions":12653,"tracks":12654,"dismissed":12655,"asts":12656,"113":12657,"cede":12658,"agreeing":12659,"POINT":12660,"151":12661,"249":12662,"GOOD":12663,"expired":12664,"Excellent":12665,"sorting":12666,"scrat":12667,"Lets":12668,"1985":12669,"characteristics":12670,"slave":12671,"Russians":12672,"Broad":12673,"tendency":12674,"Hindi":12675,"healthy":12676,"examine":12677,"corruption":12678,"BANNED":12679,"abbrevi":12680,"GEORGE":12681,"!@":12682,"AIV":12683,"BT":12684,"Bye":12685,"Ji":12686,"Nam":12687,"clip":12688,"pants":12689,"rett":12690,"recording":12691,"tection":12692,"Things":12693,"formula":12694,"Remove":12695,"inclined":12696,"gged":12697,"163":12698,"rane":12699,"Quite":12700,"officials":12701,"scum":12702,"musicians":12703,"drawing":12704,"bitchMattythewhite":12705,"magn":12706,"demonstrates":12707,"civilians":12708,"\":::::":12709,"infringement":12710,"svg":12711,"acceler":12712,"Daedalus969":12713,"\"*":12714,"Aw":12715,"Ax":12716,"Ep":12717,"Ener":12718,"Jul":12719,"Lol":12720,"Por":12721,"lvan":12722,"mr":12723,"oth":12724,"pitch":12725,"rud":12726,"satell":12727,"tored":12728,"enlight":12729,"imposed":12730,"solic":12731,"uration":12732,"dispar":12733,"umin":12734,"formally":12735,"holy":12736,"overlap":12737,"aught":12738,"clock":12739,"awk":12740,"parliament":12741,"175":12742,"ranks":12743,"UNDUE":12744,"Spread":12745,"criticized":12746,"Neo":12747,"Area":12748,"metaph":12749,"baseless":12750,"hypocritical":12751,"harmful":12752,"mirror":12753,"Additional":12754,"Liberal":12755,"Retri":12756,"puzz":12757,"employee":12758,"COMPUT":12759,"approximately":12760,"lobby":12761,"Replaceable":12762,"credentials":12763,"Bbb23":12764,")...":12765,"CJ":12766,"Cru":12767,"Dor":12768,"Fav":12769,"Stalk":12770,"Tha":12771,"URE":12772,"``":12773,"nb":12774,"vas":12775,"refe":12776,"thes":12777,"tox":12778,"adel":12779,"shar":12780,"exceed":12781,"quo":12782,"antine":12783,"clause":12784,"derog":12785,"lical":12786,"backing":12787,"closure":12788,"aims":12789,"contention":12790,"refuses":12791,"Conne":12792,"originated":12793,"fairness":12794,"arguably":12795,"constru":12796,"surance":12797,"ructive":12798,"patients":12799,"activist":12800,"Doesn":12801,"stood":12802,"exclude":12803,"DUMB":12804,"Matthew":12805,"Raul":12806,"DELETE":12807,"manufacture":12808,"Universe":12809,"Left":12810,"Aut":12811,"Birth":12812,"Cos":12813,"Gale":12814,"KNO":12815,"Lam":12816,"LAT":12817,"Philoso":12818,"bless":12819,"cart":12820,"fut":12821,"gur":12822,"hates":12823,"nical":12824,"osing":12825,"vand":12826,"vak":12827,"atro":12828,"libr":12829,"ril":12830,"exhaust":12831,"ISP":12832,"Story":12833,"bigot":12834,"osity":12835,"courts":12836,"148":12837,"236":12838,"ICAN":12839,"stronger":12840,"moderator":12841,"uniform":12842,"broader":12843,"targeted":12844,"grandfather":12845,"Satan":12846,"Evidence":12847,"Adams":12848,"USSR":12849,"thetical":12850,"Meanwhile":12851,":)":12852,"Bridge":12853,"Gro":12854,"Gri":12855,"Hamas":12856,"MAR":12857,"nail":12858,"nipple":12859,"pak":12860,"tens":12861,"reinst":12862,"beit":12863,"entities":12864,"meter":12865,"idi":12866,"istle":12867,"iland":12868,"reson":12869,"boot":12870,"uman":12871,"pregn":12872,"116":12873,"venge":12874,"accepting":12875,"vocal":12876,"225":12877,"Manchester":12878,"AMER":12879,"apore":12880,"diet":12881,"mmm":12882,"recognise":12883,"magic":12884,"audi":12885,"reflected":12886,"investigate":12887,"selective":12888,"salv":12889,"grading":12890,"chiat":12891,"Semi":12892,"FORE":12893,"universities":12894,"Senate":12895,"colonial":12896,"russian":12897,"equipment":12898,"frustration":12899,"Netherlands":12900,"sloppy":12901,"Christopher":12902,"(+":12903,"600":12904,"GL":12905,"Jason":12906,"Rest":12907,"bang":12908,"mile":12909,"wl":12910,"thick":12911,"rek":12912,"enthus":12913,"acle":12914,"acrit":12915,"metro":12916,"imperial":12917,"pod":12918,"moot":12919,"tering":12920,"trace":12921,"hoi":12922,"prepar":12923,"removes":12924,"ruin":12925,"Anderson":12926,"cents":12927,"aimed":12928,"monkey":12929,"HAAH":12930,"MED":12931,"testim":12932,"decides":12933,"politan":12934,"Anything":12935,"airs":12936,"grammatical":12937,"slaves":12938,"Carl":12939,"literal":12940,"?!?":12941,"Design":12942,"measures":12943,"contradictory":12944,"losses":12945,"keeper":12946,"volunteers":12947,"Victoria":12948,"slander":12949,"holiday":12950,"leagues":12951,"2C":12952,"Bol":12953,"Dumb":12954,"Father":12955,"Ja":12956,"Jos":12957,"Kh":12958,"Rub":12959,"ULA":12960,"cham":12961,"theat":12962,"rill":12963,"ido":12964,"aints":12965,"prise":12966,"spreading":12967,"temple":12968,"PORT":12969,"shell":12970,"dynasty":12971,"vowel":12972,"nerd":12973,"Cheatsheet":12974,"stupidity":12975,"Disco":12976,"doubts":12977,"humanity":12978,"prophe":12979,"Smile":12980,"treating":12981,"murdered":12982,"loyal":12983,"Sanchez":12984,"churches":12985,"BACK":12986,"Cambridge":12987,"Ross":12988,"bizn":12989,"1111111111111111111111111111111111111111111111111111111111111111":12990,"Following":12991,"frozen":12992,"syndrome":12993,"Lewis":12994,"currency":12995,"5th":12996,"DP":12997,"Equ":12998,"Fle":12999,"GAN":13000,"Low":13001,"Mit":13002,"Map":13003,"Mountain":13004,"VES":13005,"Vagina":13006,"Wind":13007,"Wright":13008,"_in_":13009,"fame":13010,"ij":13011,"uitive":13012,"vit":13013,"oma":13014,"adav":13015,"loid":13016,"ears":13017,"REST":13018,"understandable":13019,"searched":13020,"THEN":13021,".......":13022,"Notable":13023,"Marine":13024,"deciding":13025,"Except":13026,"Mrs":13027,"Color":13028,"stems":13029,"faces":13030,"dropping":13031,"yahoo":13032,"falling":13033,"younger":13034,"Haha":13035,"jewish":13036,"onathan":13037,"percentage":13038,"employees":13039,"inferior":13040,"cricket":13041,"encountered":13042,"stereoty":13043,"COMPUTER":13044,")/":13045,"Fron":13046,"mast":13047,"mason":13048,"tack":13049,"tends":13050,"theology":13051,"escape":13052,"cere":13053,"cells":13054,"keen":13055,"indu":13056,"tied":13057,"subtle":13058,"desired":13059,"twat":13060,"Nobel":13061,"nny":13062,"surgery":13063,"231":13064,"biological":13065,"ethics":13066,"33ERS":13067,"=====":13068,"Corpor":13069,"hypocrite":13070,"routine":13071,"++++":13072,"railway":13073,"asserted":13074,"launched":13075,"assigned":13076,"estimates":13077,"WRONG":13078,"Punjab":13079,"Protestant":13080,"Drive":13081,"Nl33ERS":13082,"Retrieved":13083,"'?":13084,"Danny":13085,"OB":13086,"PT":13087,"Prom":13088,"Trad":13089,"YAAAA":13090,"YAAA":13091,"cence":13092,"foul":13093,"hunt":13094,"iac":13095,"ima":13096,"igm":13097,"!!!!'":13098,"pton":13099,"contrib":13100,"REMO":13101,"158":13102,"Notes":13103,"researching":13104,"lawsuit":13105,"carbon":13106,"Coast":13107,"liberty":13108,"Germanic":13109,"ribution":13110,"Redirect":13111,"visitors":13112,"minimal":13113,"achievements":13114,"Dennis":13115,"electronic":13116,"Religion":13117,"Wonder":13118,"Taylor":13119,"219":13120,"Fly":13121,"Fiction":13122,"HIV":13123,"Pas":13124,"Pass":13125,"Run":13126,"Rangers":13127,"SD":13128,"SL":13129,"SM":13130,"bans":13131,"punch":13132,"infant":13133,"inews":13134,"returns":13135,"atics":13136,"erto":13137,"eso":13138,"ropractic":13139,"agement":13140,"poison":13141,"sher":13142,"editions":13143,"coal":13144,"oting":13145,"desir":13146,"misuse":13147,"refusing":13148,"lecture":13149,"165":13150,"245":13151,"Regional":13152,"Perfect":13153,"appearances":13154,"Norman":13155,"sorted":13156,"ADD":13157,"petition":13158,"teachers":13159,"nationally":13160,"principal":13161,"CONS":13162,"frequency":13163,"ANYTHING":13164,"presidential":13165,"Years":13166,"conventional":13167,"environmental":13168,"Random":13169,"manga":13170,"illustrates":13171,"WWWWWWWWWWWWWWWWWWWWWWWWWWWWWWWWWWWWWWWWWWWWWWWWWWWWWWWWWWWWWWWW":13172,"struggle":13173,"COMMUN":13174,"knock":13175,"reversed":13176,"parallel":13177,"tongue":13178,"derogatory":13179,"Bong":13180,"Kol":13181,"LESS":13182,"Trop":13183,"coffee":13184,"gut":13185,"hra":13186,"laug":13187,"td":13188,"uto":13189,"inner":13190,"anity":13191,"asks":13192,"andem":13193,"heres":13194,"wholly":13195,"pear":13196,"uncertain":13197,"imm":13198,"!!:":13199,"exhibit":13200,"diss":13201,"ported":13202,"raped":13203,"Heart":13204,"forest":13205,"clown":13206,"Station":13207,"coln":13208,"Moore":13209,"ilian":13210,"Liver":13211,"hydro":13212,"Abraham":13213,"drum":13214,"propagand":13215,"influential":13216,"contradiction":13217,"frequent":13218,"calendar":13219,"FYROM":13220,"incorporate":13221,"quantum":13222,"circles":13223,"sanctioned":13224,"Blood":13225,"Creative":13226,"opathy":13227,"Silver":13228,"forbidden":13229,"IMDB":13230,"disturbing":13231,"SBS6":13232,"Wrong":13233,"Problem":13234,"!@!!!!!!":13235,"lvania":13236,"HAAHHAHAHAH":13237,"Evolution":13238,"Native":13239,"PI":13240,"Pear":13241,"TL":13242,"danger":13243,"ym":13244,"inity":13245,"lend":13246,"devil":13247,"roles":13248,"propri":13249,"bott":13250,"indirect":13251,"1940":13252,"beings":13253,"syno":13254,"messing":13255,"Howard":13256,"approve":13257,"copyrights":13258,"penal":13259,"roughly":13260,"producer":13261,"buried":13262,"porno":13263,"populations":13264,"phobia":13265,"caps":13266,"biology":13267,"winner":13268,"unblocking":13269,"programming":13270,"Greater":13271,"divor":13272,"stalker":13273,"Singapore":13274,"Rule":13275,"supporter":13276,"Miller":13277,"liography":13278,"fighter":13279,"Bruce":13280,"Joshua":13281,"houses":13282,"doctrine":13283,"pertaining":13284,"Intelligence":13285,"archae":13286,"Develop":13287,"biznitch":13288,"Aus":13289,"Fasc":13290,"Isa":13291,"Jonathan":13292,"Mars":13293,"NH":13294,"NBC":13295,"Tel":13296,"Yan":13297,"bite":13298,"atly":13299,"oms":13300,"agle":13301,"acr":13302,"debut":13303,"unjust":13304,"iden":13305,"oute":13306,"ulating":13307,"spel":13308,"otes":13309,"Reason":13310,"consists":13311,"spurious":13312,"Allen":13313,"paran":13314,"Ans":13315,"Anne":13316,"interven":13317,"126":13318,"trim":13319,"ratio":13320,"flash":13321,"MEN":13322,"transliter":13323,"basketball":13324,"clever":13325,"operated":13326,"Princess":13327,"Keith":13328,"BOS":13329,"crucial":13330,"reminder":13331,"politely":13332,"Operation":13333,"collapse":13334,"cheeseI":13335,"obsessed":13336,"Thoughts":13337,"husband":13338,"Email":13339,"LES":13340,"SAL":13341,"Tu":13342,"Treat":13343,"cure":13344,"cue":13345,"ei":13346,"kiss":13347,"piano":13348,"vul":13349,"witch":13350,"ال":13351,"ths":13352,"theor":13353,"beg":13354,"unsupported":13355,"exem":13356,"quart":13357,"eves":13358,"spit":13359,"Almost":13360,"continent":13361,"Deep":13362,"generations":13363,"promo":13364,"Somebody":13365,"organisations":13366,"Exact":13367,"Byz":13368,"enjoyed":13369,"liberals":13370,"Deleting":13371,"teachings":13372,"Malays":13373,"journalism":13374,"insisting":13375,"collaborate":13376,"assessed":13377,"DRV":13378,"Governor":13379,"mythology":13380,"blogspot":13381,"discovery":13382,"Noticeboard":13383,"mathematics":13384,"Batman":13385,"Championship":13386,"Atlantic":13387,"inherently":13388,"Egyptian":13389,"suffered":13390,"guarantee":13391,"maximum":13392,"drunk":13393,"%.":13394,".;":13395,"Fail":13396,"Gaza":13397,"Kin":13398,"Set":13399,"UTH":13400,"VA":13401,"dry":13402,"phi":13403,"wins":13404,"inating":13405,"incoherent":13406,"rebel":13407,"tol":13408,"albeit":13409,"ifer":13410,"mentally":13411,"franch":13412,"plaus":13413,"oking":13414,"grave":13415,"essence":13416,"viewing":13417,"akin":13418,"signal":13419,"pathy":13420,"farm":13421,"238":13422,"Barbar":13423,"staying":13424,"Meet":13425,"belt":13426,"Europeans":13427,"whitewash":13428,"TRY":13429,"grew":13430,"McC":13431,"Catholics":13432,"loyd":13433,"satisfies":13434,"Opin":13435,"Patrick":13436,"Karl":13437,"Studies":13438,"Historic":13439,"Lincoln":13440,"harrassment":13441,"transferred":13442,"Bishonen":13443,"CUNTCUNTCUNTCUNT":13444,"descendants":13445,"philosophical":13446,"subscribe":13447,"Version":13448,"construed":13449,"\".":13450,"PUT":13451,"PLA":13452,"Ring":13453,"cular":13454,"kk":13455,"nest":13456,"pne":13457,"praise":13458,"tall":13459,"repost":13460,"hab":13461,"nell":13462,"onet":13463,"hereby":13464,"cave":13465,"hospital":13466,"1944":13467,"obli":13468,"hibits":13469,"afford":13470,"Always":13471,"Album":13472,"supplied":13473,"ITS":13474,"THEM":13475,"curi":13476,"handful":13477,"worthwhile":13478,"patron":13479,"annual":13480,"techno":13481,"constructively":13482,"1973":13483,"1974":13484,"ajaj":13485,"Monday":13486,"casting":13487,"believing":13488,"TELL":13489,"industrial":13490,"Captain":13491,"eliminated":13492,"crisy":13493,"Larry":13494,"casualties":13495,"cookie":13496,"rexcurry":13497,"awkward":13498,"?),":13499,"Buck":13500,"Fant":13501,"Kid":13502,"MUS":13503,"Omega":13504,"Ped":13505,"Sax":13506,"Ted":13507,"Tun":13508,"Todd":13509,"bent":13510,"cles":13511,"dit":13512,"dip":13513,"gade":13514,"sam":13515,"incent":13516,"itzer":13517,"aspx":13518,"stum":13519,"beer":13520,"wil":13521,"concrete":13522,"shr":13523,"perpet":13524,"contra":13525,"upcoming":13526,"endors":13527,"enses":13528,"Nope":13529,"properties":13530,"Shut":13531,"humour":13532,"mier":13533,"1980s":13534,"homophob":13535,"separated":13536,"slang":13537,"priority":13538,"splitting":13539,"Palestinians":13540,"Apologies":13541,"Crus":13542,"arrested":13543,"GREEK":13544,"Puerto":13545,"atmosphere":13546,"scratch":13547,"Ide":13548,"Pink":13549,"iel":13550,"rt":13551,"agu":13552,"\"\"[":13553,"fork":13554,"devote":13555,"rod":13556,"usa":13557,"loving":13558,"chances":13559,"unfamiliar":13560,"estimate":13561,"extension":13562,"apping":13563,"uster":13564,"ishing":13565,"silent":13566,"Independent":13567,"remotely":13568,"listings":13569,"ATT":13570,"refu":13571,"LOVE":13572,"transcript":13573,"borough":13574,"objected":13575,"damaging":13576,"Key":13577,"destructive":13578,"neglect":13579,"Finland":13580,"variant":13581,"girlfriend":13582,"Charac":13583,"BLOCKED":13584,"hampions":13585,"applications":13586,"Samuel":13587,"Kurdish":13588,"iveness":13589,"prevail":13590,"survive":13591,"Delhi":13592,"consequence":13593,"british":13594,"increasingly":13595,"Zionist":13596,"affairs":13597,"battles":13598,"SYN":13599,"CHOCO":13600,"Fried":13601,"Jane":13602,"Kon":13603,"Lang":13604,"NAT":13605,"Pit":13606,"RU":13607,"Und":13608,"fc":13609,"kur":13610,"patch":13611,"slo":13612,"itudes":13613,"sticking":13614,"seat":13615,"concur":13616,"concensus":13617,"para":13618,"stopping":13619,"nnis":13620,"dying":13621,"presently":13622,"struck":13623,"tedly":13624,"transition":13625,"ashes":13626,"ashmir":13627,"sucking":13628,"aired":13629,"Gram":13630,"1976":13631,"motive":13632,"lucky":13633,"journalists":13634,"Bern":13635,"Mediation":13636,"geographical":13637,"captured":13638,"sarcast":13639,"evidently":13640,"Carolina":13641,"twenty":13642,"Energy":13643,"CHOCOBOS":13644,"?,":13645,"Ald":13646,"Btw":13647,"BAST":13648,"Cow":13649,"Fili":13650,"Mater":13651,"Pig":13652,"Swe":13653,"ZEN":13654,"cun":13655,"cers":13656,"gap":13657,"lation":13658,"mp":13659,"pac":13660,"alert":13661,"aron":13662,"ardo":13663,"acious":13664,"rolls":13665,"conversion":13666,"unwilling":13667,"unwarranted":13668,"teh":13669,"protests":13670,"coding":13671,"offending":13672,"Alleg":13673,"Talkback":13674,"refut":13675,"Forget":13676,"acceptance":13677,"confess":13678,"engines":13679,"defended":13680,"Warren":13681,"Place":13682,"1969":13683,"sadly":13684,"socialism":13685,"OMG":13686,"ixon":13687,"salt":13688,"Samo":13689,"tolerate":13690,"hobby":13691,"chronic":13692,"preserve":13693,"Director":13694,"entertainment":13695,"Physics":13696,"hibition":13697,"Moldo":13698,"reporter":13699,"extremist":13700,"AGE":13701,"Field":13702,"Hus":13703,"ffect":13704,"iop":13705,"thal":13706,"inet":13707,"isra":13708,"sters":13709,"segment":13710,"suing":13711,"unsure":13712,"unjustified":13713,"ironic":13714,"Ther":13715,"ained":13716,"aining":13717,"appoint":13718,"informing":13719,"REALLY":13720,"genius":13721,"FUCKIN":13722,"searches":13723,"FAR":13724,"produces":13725,"hardcore":13726,"ilarious":13727,"iversary":13728,"SEE":13729,"1981":13730,"musician":13731,"Didn":13732,"brilliant":13733,"ISTA":13734,"Simplified":13735,"flagged":13736,"Ahmad":13737,"Caucas":13738,"squad":13739,"Genesis":13740,"bombing":13741,"virtual":13742,"monitoring":13743,"kicked":13744,"ranged":13745,"MMMMMMMM":13746,"wheel":13747,"Total":13748,"Similarly":13749,"BASTARD":13750,"Cham":13751,"Grow":13752,"Kal":13753,"Kansas":13754,"VED":13755,"a_":13756,"cm":13757,"mild":13758,"revel":13759,"whites":13760,"roster":13761,"confront":13762,"righ":13763,"unsubstantiated":13764,"Thor":13765,"ilton":13766,"holocaust":13767,"intendo":13768,"ounded":13769,"...?":13770,"underlying":13771,"earliest":13772,"THOLE":13773,"workers":13774,"textbook":13775,"Ford":13776,"CHR":13777,"accuracies":13778,"automatic":13779,"mediate":13780,"winners":13781,"motherfucker":13782,"Shame":13783,"advocacy":13784,"allegedly":13785,"adequately":13786,"gossip":13787,"impressive":13788,"Specific":13789,"Computer":13790,"destroying":13791,"Exactly":13792,"Cut":13793,"Eti":13794,"FU":13795,"fn":13796,"lun":13797,"rising":13798,"s_":13799,"vices":13800,"lens":13801,"tower":13802,"aria":13803,"veter":13804,"metric":13805,"sumed":13806,"mock":13807,"amy":13808,"fraction":13809,"expo":13810,"ille":13811,"tier":13812,"guilt":13813,"tape":13814,"Arts":13815,"Storm":13816,"Form":13817,"Imperial":13818,"kespe":13819,"IGN":13820,"solutions":13821,"crus":13822,"ARREST":13823,"Exe":13824,"OOF":13825,"nationalists":13826,"}}.":13827,"Poly":13828,"retali":13829,"continuously":13830,"1977":13831,"legitim":13832,"excluded":13833,"birthday":13834,"establishment":13835,"secure":13836,"Update":13837,"PROD":13838,"channels":13839,"nuts":13840,"spaces":13841,"settlement":13842,"wisdom":13843,"rhetoric":13844,"schedule":13845,"Shadow":13846,"desirable":13847,"/?":13848,"AI":13849,"Cou":13850,"FIL":13851,"FIR":13852,"MI":13853,"NI":13854,"UFC":13855,"VENT":13856,"cards":13857,"hated":13858,"horses":13859,"ku":13860,"twe":13861,"theast":13862,"theore":13863,"unlicensed":13864,"soccer":13865,"antics":13866,"Wikipedia_talk":13867,"holes":13868,"Anonymous":13869,"Doom":13870,"realised":13871,"Beth":13872,"Newton":13873,"243":13874,"Allah":13875,"GOING":13876,"passages":13877,"criticize":13878,"medium":13879,"Foreign":13880,"Others":13881,"harassed":13882,"beneficial":13883,"funding":13884,"0840":13885,"paint":13886,"measured":13887,"attribute":13888,"Lawrence":13889,"descending":13890,"mutual":13891,"Bosnian":13892,"Campaign":13893,"Ethnic":13894,"constitutional":13895,"assassination":13896,"Guardian":13897,"igenous":13898,"transcluded":13899,"Answer":13900,"Ay":13901,"AVE":13902,"Bud":13903,"Bias":13904,"Ci":13905,"Cite":13906,"Fi":13907,"Gab":13908,"HI":13909,"IAL":13910,"Kum":13911,"Lie":13912,"UQ":13913,"Ult":13914,"dor":13915,"fate":13916,"pity":13917,"returning":13918,"theses":13919,"orange":13920,"enger":13921,"alia":13922,"absent":13923,"chop":13924,"poem":13925,"prog":13926,"fewer":13927,"disappointed":13928,"thereby":13929,"rah":13930,"OUND":13931,"THINK":13932,"wherever":13933,"placement":13934,"mainspace":13935,"Former":13936,"Proof":13937,"152":13938,"sentiment":13939,"ENCE":13940,"wishing":13941,"tructure":13942,"Norway":13943,"Goodbye":13944,"BLANK":13945,"periods":13946,"elig":13947,"punct":13948,"Wouldn":13949,"hypocrisy":13950,"communications":13951,"Alexand":13952,"predomin":13953,"Rules":13954,"BNP":13955,"labelled":13956,"pseudoscience":13957,"YET":13958,"EVEN":13959,"SHITHOLE":13960,"Explo":13961,"bishop":13962,"excuses":13963,"084080":13964,"700":13965,"Dia":13966,"ECT":13967,"Fest":13968,"Gary":13969,"cab":13970,"pul":13971,"uri":13972,"ulent":13973,"vital":13974,"wake":13975,"wolf":13976,"reward":13977,"islands":13978,"allies":13979,"decre":13980,"loop":13981,"pointer":13982,"polar":13983,"trait":13984,"boss":13985,"disaster":13986,"tribut":13987,"MoS":13988,"handling":13989,"expensive":13990,"similarities":13991,"domestic":13992,"alongside":13993,"operative":13994,"equations":13995,"activists":13996,"stolen":13997,"Prize":13998,"Likewise":13999,"functional":14000,"contradicts":14001,"myths":14002,"giant":14003,"Incidentally":14004,"Catal":14005,"ratings":14006,"jumped":14007,"dialects":14008,"gravity":14009,"orientation":14010,"Angela":14011,"Children":14012,"Organization":14013,"synops":14014,"kespeare":14015,"Bom":14016,"Kit":14017,"Making":14018,"NIA":14019,"OC":14020,"Oak":14021,"Ocean":14022,"Ran":14023,"UG":14024,"VP":14025,"bard":14026,"cated":14027,"dual":14028,"nur":14029,"revi":14030,"oub":14031,"aled":14032,"stink":14033,"noon":14034,"adults":14035,"peak":14036,"netic":14037,"antagon":14038,"licence":14039,"oversight":14040,"restate":14041,"spare":14042,"Alf":14043,"commission":14044,"regul":14045,"monarch":14046,"singular":14047,"Contr":14048,"lawyers":14049,"photographer":14050,"namespace":14051,"STE":14052,"aneously":14053,"BEFORE":14054,"Persians":14055,"literary":14056,"Occup":14057,"Michel":14058,"smear":14059,"Reading":14060,"geography":14061,"roads":14062,"labels":14063,"Publish":14064,"Mission":14065,"Technology":14066,"progressive":14067,"boundaries":14068,"EDITING":14069,"implemented":14070,"Buddhism":14071,"implications":14072,"iciency":14073,"Vietnamese":14074,"NNNNNNNN":14075,"Controversy":14076,"abstract":14077,"tournament":14078,"CP":14079,"FM":14080,"IFOR":14081,"KI":14082,"Nel":14083,"Sor":14084,"Sadd":14085,"Sports":14086,"Winter":14087,"Zo":14088,"Zero":14089,"bout":14090,"dq":14091,"dale":14092,"flex":14093,"kne":14094,"naz":14095,"sper":14096,"tat":14097,"tions":14098,"——":14099,"leon":14100,"eni":14101,"enor":14102,"asian":14103,"abuses":14104,"quid":14105,"worn":14106,"cloud":14107,"phon":14108,"mons":14109,"ITIES":14110,"legacy":14111,"Progress":14112,"rators":14113,"descriptive":14114,"definitive":14115,"Movie":14116,"Barack":14117,"objectivity":14118,"Against":14119,"substitute":14120,"etymology":14121,"Syrian":14122,"virgin":14123,"driver":14124,"(~~~~)":14125,"adox":14126,"associate":14127,"Century":14128,"gods":14129,"capitalized":14130,"sexuality":14131,"cuntLiz":14132,"strikes":14133,"touched":14134,"pilot":14135,"Hunter":14136,"competence":14137,"explore":14138,"hopes":14139,"arrogance":14140,"Walt":14141,"Buddhist":14142,"Changing":14143,"Gibral":14144,"jumping":14145,"parameter":14146,"admire":14147,"brackets":14148,"disrupting":14149,"scrutiny":14150,"')":14151,"Cities":14152,"Farm":14153,"YO":14154,"afore":14155,"eing":14156,"greg":14157,"nl":14158,"usable":14159,"irrational":14160,"quarter":14161,"bollah":14162,"indict":14163,"umes":14164,"lesser":14165,"assim":14166,"posters":14167,"misunderstand":14168,"ISS":14169,"critique":14170,"afterwards":14171,"instant":14172,"239":14173,"mister":14174,"nominator":14175,"respectfully":14176,"ika":14177,"Lost":14178,"debating":14179,"ulties":14180,"confirming":14181,"ignores":14182,"suffering":14183,"virus":14184,"focusing":14185,"Emperor":14186,"stubborn":14187,"variable":14188,"PROOF":14189,"seasons":14190,"Generally":14191,"crying":14192,"screenshot":14193,"appealing":14194,"Citiz":14195,"Pakistani":14196,"carrying":14197,"survived":14198,"SIX":14199,"shocked":14200,"bourne":14201,"speculative":14202,"scared":14203,"shift":14204,"annoyed":14205,"instrument":14206,"ambiguity":14207,"adjective":14208,"Spirit":14209,"reinstated":14210,"laughable":14211,"plausible":14212,"sarcastic":14213,"Astro":14214,"Bak":14215,"Cris":14216,"Money":14217,"Sav":14218,"duck":14219,"equality":14220,"jk":14221,"mend":14222,"rical":14223,"inaccuracies":14224,"ione":14225,"adays":14226,"artific":14227,"loo":14228,"chill":14229,"pelled":14230,"mood":14231,"inkle":14232,"Insert":14233,"posal":14234,"sale":14235,"prize":14236,"refresh":14237,"wikiproject":14238,"USING":14239,"Proto":14240,"wondered":14241,"reviewers":14242,"ahouse":14243,"joys":14244,"cuit":14245,"Chronic":14246,"Management":14247,"Express":14248,"Norwe":14249,"diagram":14250,"practically":14251,"DIEGO":14252,"Guess":14253,"equation":14254,"formerly":14255,"influences":14256,"Crown":14257,"Hindus":14258,"Triple":14259,"geographic":14260,"hoods":14261,"rumors":14262,"BIO":14263,"hhhh":14264,"favourite":14265,"Members":14266,"illustration":14267,"CALIFOR":14268,"Politics":14269,"estimated":14270,"certific":14271,"SHITHEAD":14272,"legislation":14273,"Hawaii":14274,"outrageous":14275,"Baptist":14276,"masturb":14277,"CALIFORNIA":14278,"CITE":14279,"FRO":14280,"Facts":14281,"Partic":14282,"Rum":14283,"VISTA":14284,"cd":14285,"kam":14286,"lake":14287,"rous":14288,"thru":14289,"rez":14290,"react":14291,"ingen":14292,"beating":14293,"livery":14294,"suited":14295,"outlets":14296,"neuro":14297,"excer":14298,"discre":14299,"hash":14300,"lice":14301,"raises":14302,"rightly":14303,"1920":14304,"Assem":14305,"priest":14306,"Sept":14307,"markets":14308,"mighty":14309,"18th":14310,"CHULA":14311,"hammed":14312,"Quote":14313,"stayed":14314,"Poor":14315,"truthful":14316,"1983":14317,"Collect":14318,"susp":14319,"1978":14320,"TRS":14321,"municip":14322,"snip":14323,"TAKE":14324,"Kurt":14325,"Strong":14326,"Miscell":14327,"universally":14328,"accomplished":14329,"Born":14330,"inflam":14331,"Kyiv":14332,"executive":14333,"Craig":14334,"unilaterally":14335,"Liverpool":14336,"SALT":14337,"!.":14338,"Dest":14339,"Devil":14340,"Fu":14341,"Math":14342,"Nad":14343,"WC":14344,"WS":14345,"aki":14346,"cad":14347,"fus":14348,"jg":14349,"junk":14350,"nab":14351,"oke":14352,"pink":14353,"scar":14354,"tal":14355,"uce":14356,"wank":14357,"ensible":14358,"aser":14359,"beef":14360,"petr":14361,"outed":14362,"composed":14363,"Through":14364,"wholes":14365,"serial":14366,"prestig":14367,"coup":14368,"attach":14369,"THREAT":14370,"restaur":14371,"commend":14372,"twitter":14373,"awn":14374,"Unlike":14375,"brut":14376,"THEIR":14377,"flame":14378,"167":14379,"ORY":14380,"specifics":14381,"provin":14382,"fixes":14383,"muslims":14384,"ounce":14385,"debt":14386,"Tea":14387,"keyboard":14388,"Templ":14389,"fallacy":14390,"Republicans":14391,"incidentally":14392,"psychiat":14393,"Luke":14394,"aviation":14395,"substantive":14396,"civilian":14397,"AAAAAAAA":14398,"Hinduism":14399,"compliment":14400,"columns":14401,"manipulation":14402,"Ethiop":14403,"Pictures":14404,"Guidelines":14405,"coordinates":14406,"!!!!!!!!!!!!!!!!!!!!!!!!!!!!!!!!!!!!!!!!!!!!!!!!!!!!!!!!!!!!!!!!!!!!!!!!!!!!!!!!!!!!!!!!!!!!!!!!!!!!!!!!!!!!!!!!!!!!!!!!!!!!!!!!!!!!!!!!!!!!!!!!!!!!!!!!!!!!!!!!!!!!!!!!!!!!!!!!!!!!!!!!!!!!!!!!!!!!!!!!!!!!!!!!!!!!!!!!!!!!!!!!!!!!!!!!!!!!!!!!!!!!!!!!!!!!!!!!":14407,"architect":14408,"sacrif":14409,"Conservative":14410,"HELP":14411,"Entertain":14412,"NASA":14413,"enormous":14414,"Billy":14415,"Flight":14416,"Gill":14417,"Hart":14418,"HIST":14419,"Knox":14420,"OPIN":14421,"Pod":14422,"Siles":14423,"UAL":14424,"WAT":14425,"dney":14426,"hilarious":14427,"lum":14428,"lud":14429,"lah":14430,"nin":14431,"oxy":14432,"vity":14433,"omor":14434,"notably":14435,"verbat":14436,"amend":14437,"cker":14438,"clin":14439,"corresponding":14440,"tts":14441,"listas":14442,"awa":14443,"aska":14444,"blacks":14445,"Going":14446,"IPA":14447,"pected":14448,"memor":14449,"cuase":14450,"ARS":14451,"Leon":14452,"respectable":14453,"pasting":14454,"WHEN":14455,"Teahouse":14456,"sched":14457,"judged":14458,"biases":14459,"castle":14460,"nonetheless":14461,"encyclopedias":14462,"Shakespeare":14463,"murde":14464,"excluding":14465,"encouraging":14466,"submitting":14467,"demands":14468,"floor":14469,"Jefferson":14470,"encyclopaedic":14471,"Brothers":14472,"Secretary":14473,"torture":14474,"rapidly":14475,"catholic":14476,"anskrit":14477,"KNOB":14478,"Bongwarrior":14479,"Development":14480,":\"\"":14481,"CV":14482,"DJ":14483,"MAD":14484,"Nintendo":14485,"Sof":14486,"Tower":14487,"Walter":14488,"bid":14489,"jani":14490,"mount":14491,"sions":14492,"reactions":14493,"hav":14494,"peNis":14495,"shatri":14496,"perpetr":14497,"hockey":14498,"opponent":14499,"1918":14500,"manually":14501,"INDI":14502,"Defin":14503,"nnien":14504,"LOT":14505,"pennnis":14506,"IDF":14507,"mailing":14508,"cleared":14509,"Pete":14510,"nsnnien":14511,"Johnny":14512,"redirecting":14513,"Foo":14514,"expecting":14515,"Carib":14516,"JEWS":14517,"1965":14518,"calc":14519,"PHUQ":14520,"PenIS":14521,"remarkable":14522,"celebrity":14523,"Castle":14524,"Lebanese":14525,"obsession":14526,"omitted":14527,"SNsn":14528,"parameters":14529,"Yahoo":14530,"pensnsnnien":14531,"COMMUNISM":14532,"pneis":14533,"Material":14534,"pensnsnnienSNsn":14535,"Bond":14536,"CY":14537,"CBS":14538,"Il":14539,"Punk":14540,"Save":14541,"SPA":14542,"Wed":14543,"fied":14544,"flip":14545,"jim":14546,"lone":14547,"sab":14548,"infect":14549,"eras":14550,"noble":14551,"agencies":14552,"acom":14553,"riel":14554,"wasti":14555,"mentor":14556,"urg":14557,"disclaim":14558,"preach":14559,"Hez":14560,"ansing":14561,"izer":14562,"spanish":14563,"misrepresentation":14564,"choosing":14565,"Import":14566,"ranked":14567,"NOTE":14568,"Explain":14569,"sucker":14570,"medieval":14571,"21st":14572,"assured":14573,"Absolute":14574,"clarifying":14575,"libertarian":14576,"apologized":14577,"latin":14578,"999":14579,"greet":14580,"treaty":14581,"Appe":14582,"Iranians":14583,"spectrum":14584,"establishing":14585,"sweep":14586,"rumor":14587,"crossed":14588,"smoking":14589,"Palin":14590,"blindly":14591,"Kindly":14592,"implication":14593,"False":14594,"satisfaction":14595,"Pennsy":14596,"Etiquette":14597,"Gibraltar":14598,"FROZEN":14599,"Bron":14600,"JW":14601,"Lan":14602,"Lot":14603,"Mom":14604,"Nep":14605,"Spy":14606,"Santa":14607,"Usu":14608,"drew":14609,"gments":14610,"ored":14611,"zilla":14612,"repair":14613,"revenge":14614,"to_":14615,"adi":14616,"deliver":14617,"rolled":14618,"contempt":14619,"liars":14620,"united":14621,"poser":14622,"composition":14623,"terribly":14624,"expose":14625,"myster":14626,"plz":14627,"ulu":14628,"disappeared":14629,"forming":14630,"Init":14631,"gear":14632,"verty":14633,"hier":14634,"medal":14635,"genital":14636,"Conference":14637,"verses":14638,"dys":14639,"considerably":14640,"researcher":14641,"shitty":14642,"LEAVE":14643,"delusion":14644,"mming":14645,"camps":14646,"1968":14647,"essional":14648,"designer":14649,"designation":14650,"facing":14651,"Sym":14652,"Smack":14653,"Finnish":14654,"MAKE":14655,"Deleted":14656,"sympto":14657,"Share":14658,"smell":14659,"trains":14660,"collective":14661,"fantastic":14662,"exec":14663,"WORLD":14664,"mangina":14665,"Russell":14666,"Square":14667,"Documentation":14668,"endeav":14669,"(→":14670,",'":14671,"Batt":14672,"CU":14673,"Dif":14674,"Event":14675,"Living":14676,"Sou":14677,"Sud":14678,"Text":14679,"Tips":14680,"Uh":14681,"WMF":14682,"iod":14683,"lion":14684,"lux":14685,"ox":14686,"pound":14687,"sadd":14688,"sket":14689,"eral":14690,"eday":14691,"orthodox":14692,"omer":14693,"entering":14694,"abund":14695,"chess":14696,"conve":14697,"rik":14698,"unverifiable":14699,"unencyclopedic":14700,"imperson":14701,"output":14702,"tex":14703,"clutter":14704,"ardon":14705,"jealous":14706,"ucker":14707,"OUNT":14708,"ideological":14709,"Thankyou":14710,"wwww":14711,"reflection":14712,"interactions":14713,"understands":14714,"Deut":14715,"Protection":14716,"Compar":14717,"argues":14718,"publicity":14719,"''''''''''":14720,"Join":14721,"253":14722,"GA1":14723,"Services":14724,"patrol":14725,"separately":14726,"homepage":14727,"homework":14728,"suffice":14729,"steal":14730,"hindu":14731,"Phone":14732,"physically":14733,"Merry":14734,"scores":14735,"Single":14736,"mathematic":14737,"Volume":14738,"UUUUUU":14739,"dominant":14740,"spellings":14741,"reserved":14742,"privilege":14743,"suspicion":14744,"circular":14745,"devices":14746,"Adolf":14747,"paraphrase":14748,"discipline":14749,"Engineering":14750,"Concerning":14751,"theoretical":14752,"toxic":14753,"punctuation":14754,"Pennsylvania":14755,"FOUR":14756,"G1":14757,"Hou":14758,"JF":14759,"LINK":14760,"MMA":14761,"Nag":14762,"Sac":14763,"Spo":14764,"_use":14765,"aq":14766,"aeda":14767,"dili":14768,"fd":14769,"oi":14770,"sou":14771,"yu":14772,"recur":14773,"anes":14774,"itsuck":14775,"leus":14776,"alli":14777,"icate":14778,"stead":14779,"becuase":14780,"dos":14781,"component":14782,"peran":14783,"ignty":14784,"vić":14785,"donkey":14786,"raid":14787,"izon":14788,"attitudes":14789,"obst":14790,"ensions":14791,"postings":14792,"misguided":14793,"10th":14794,"ALONE":14795,"legs":14796,"identification":14797,"Beach":14798,"welcomed":14799,"14th":14800,"promising":14801,"LET":14802,"airport":14803,"static":14804,"morons":14805,"honour":14806,"annada":14807,"Disambig":14808,"opera":14809,"Abuse":14810,"Colom":14811,"minorities":14812,"basement":14813,"Contributing":14814,"rowned":14815,"Trying":14816,"Calgary":14817,"hanging":14818,"Azeri":14819,"pronounce":14820,"festival":14821,"preserved":14822,"dimension":14823,"((((":14824,"Potter":14825,"Scientific":14826,"cousin":14827,"Bulgaria":14828,"salvage":14829,"aforementioned":14830,"verbatim":14831,"%,":14832,"ACK":14833,"Bun":14834,"Cob":14835,"Kings":14836,"Napo":14837,"Sound":14838,"bind":14839,"cash":14840,"dust":14841,"gig":14842,"hounding":14843,"mare":14844,"swasti":14845,"heed":14846,"nett":14847,"wasted":14848,"irs":14849,"apple":14850,"tray":14851,"acking":14852,"berry":14853,"goodness":14854,"Arm":14855,"xture":14856,"regulations":14857,"POLIT":14858,"Myth":14859,"concert":14860,"smile":14861,"Wells":14862,"Abd":14863,"conflicting":14864,"TRI":14865,"1960s":14866,"burning":14867,"Amendment":14868,"chaos":14869,"educate":14870,"hosted":14871,"inois":14872,"Ministry":14873,"Malleus":14874,"dependence":14875,"Portugal":14876,"Airport":14877,"Franklin":14878,"conservatives":14879,"emotion":14880,"perceive":14881,"libelous":14882,"inflation":14883,"Television":14884,"Writing":14885,"Pirates":14886,"obligation":14887,"Beyond":14888,"Dispute":14889,"Argentina":14890,"canvassing":14891,"rudeness":14892,"Front":14893,"exposure":14894,"GT":14895,"Gh":14896,"Khal":14897,"Mia":14898,"NFL":14899,"OTRS":14900,"Sant":14901,"Seven":14902,"WARD":14903,"vah":14904,"wy":14905,"yield":14906,"thon":14907,"inspir":14908,"beck":14909,"heter":14910,"heaven":14911,"acing":14912,"metic":14913,"llll":14914,"arent":14915,"amb":14916,"frag":14917,"appa":14918,"cance":14919,"ulong":14920,"mini":14921,"licks":14922,"pref":14923,"desperate":14924,"reasoned":14925,"Stupid":14926,"monster":14927,"reluct":14928,"encylo":14929,"oga":14930,"233":14931,"extrem":14932,"statistical":14933,"Barry":14934,"1990s":14935,"sounding":14936,"glance":14937,"Corn":14938,"Address":14939,"Ambass":14940,"ELY":14941,"preventing":14942,"stores":14943,"Hero":14944,"Priv":14945,"Cypri":14946,"comparable":14947,"americans":14948,"MINOR":14949,"FFFFF":14950,"taxes":14951,"NYC":14952,"rifle":14953,"smooth":14954,"civilization":14955,"portrait":14956,"Ship":14957,"vehicles":14958,"AWB":14959,"retained":14960,"zzzzzzzzzzzzzzzzzzzzzzzzzzzzzzzzzzzzzzzzzzzzzzzzzzzzzzzzzzzzzzzz":14961,"Olympics":14962,"PNG":14963,"Scholar":14964,"suspended":14965,"wholesale":14966,"OPINION":14967,"Hezbollah":14968,"8th":14969,"A3":14970,"Action":14971,"Clo":14972,"Camer":14973,"EA":14974,"Idi":14975,"Jake":14976,"Kay":14977,"Mount":14978,"RF":14979,"apost":14980,"cros":14981,"fts":14982,"jury":14983,"pix":14984,"riction":14985,"insignificant":14986,"incredible":14987,"rell":14988,"ania":14989,"theres":14990,"atable":14991,"isine":14992,"ede":14993,"enjoys":14994,"nore":14995,"adam":14996,"adress":14997,"decor":14998,"deeper":14999,"unge":15000,"irony":15001,"alling":15002,"eving":15003,"grind":15004,"readily":15005,"gues":15006,"desist":15007,"avid":15008,"invention":15009,"Hoo":15010,"singing":15011,"realistic":15012,"choices":15013,"HAR":15014,"promises":15015,"LEAD":15016,"qualification":15017,"queen":15018,"continuous":15019,"1970s":15020,"multiples":15021,"independently":15022,"phrased":15023,"burst":15024,"Sydney":15025,"specialist":15026,"Phill":15027,"ISTS":15028,"evolved":15029,"Elonka":15030,"Berlin":15031,"HTML":15032,"cruft":15033,"Attribution":15034,"advocates":15035,"Possible":15036,"skip":15037,"Summary":15038,"dimin":15039,"junction":15040,"Illinois":15041,"KKKKKK":15042,"Entertainment":15043,"Chad":15044,"Carter":15045,"Pap":15046,"Side":15047,"Saudi":15048,"Yam":15049,"awhile":15050,"bt":15051,"eager":15052,"js":15053,"kal":15054,"pomp":15055,"rhy":15056,"shel":15057,"thirty":15058,"incompetent":15059,"oner":15060,"encomp":15061,"enna":15062,"encounter":15063,"ications":15064,"youre":15065,"agents":15066,"utili":15067,"unfairly":15068,"istically":15069,"terior":15070,"ilers":15071,"myspace":15072,"pling":15073,"cott":15074,"1939":15075,"offline":15076,"Stay":15077,"blunt":15078,"nonsens":15079,"numbered":15080,"courage":15081,"crush":15082,"carries":15083,"Cole":15084,"lovely":15085,"WHI":15086,"vanity":15087,"burgh":15088,"preferable":15089,"determination":15090,"Simpson":15091,"adoption":15092,"performing":15093,"structures":15094,"slightest":15095,"efficient":15096,"captions":15097,"reveals":15098,"fascism":15099,"employer":15100,"Liter":15101,"budget":15102,"tasks":15103,"navig":15104,"asserting":15105,"flaws":15106,"Changes":15107,"Collabor":15108,"Recently":15109,"noxious":15110,"CCCCCC":15111,"Philippines":15112,"testimony":15113,"righteous":15114,"Caribbean":15115,".\"\".":15116,"Athe":15117,"Cover":15118,"CIS":15119,"Kor":15120,"Sn":15121,"TION":15122,"Twit":15123,"mg":15124,"naked":15125,"och":15126,"rings":15127,"zi":15128,"recreate":15129,"rots":15130,"lod":15131,"lored":15132,"pets":15133,"amended":15134,"teeth":15135,"fere":15136,"ols":15137,"mins":15138,"preview":15139,"illness":15140,"corro":15141,"1900":15142,").\"\"":15143,"matory":15144,"usernames":15145,"THAN":15146,"afi":15147,"typed":15148,"restriction":15149,"missi":15150,"refute":15151,"relatives":15152,"Forum":15153,"relevent":15154,"Orphaned":15155,"OOO":15156,"humble":15157,"killer":15158,"Workers":15159,"Accus":15160,"WikiProjects":15161,"Pretty":15162,"fancy":15163,"Hispanic":15164,"Centre":15165,"Moroc":15166,"tracking":15167,"philosopher":15168,"Ryulong":15169,"nesota":15170,"anticip":15171,"psychological":15172,"novels":15173,"Murder":15174,"reserve":15175,"Hmmm":15176,"Esperan":15177,"Banglad":15178,"tionary":15179,"GUY":15180,"neutrally":15181,"Wrestling":15182,"consciousness":15183,"manifest":15184,"RVV":15185,"proxies":15186,"excerpt":15187,"360":15188,"8px":15189,"Danish":15190,"Eu":15191,"NF":15192,"Nas":15193,"Pay":15194,"Pow":15195,"Sr":15196,"Sanskrit":15197,"Want":15198,"Yout":15199,"gib":15200,"jes":15201,"jail":15202,"inated":15203,"inadvert":15204,"rec":15205,"recon":15206,"enforced":15207,"stake":15208,"devi":15209,"kett":15210,"outlined":15211,"editer":15212,"allas":15213,"cody":15214,"coins":15215,"personnel":15216,"hijack":15217,"manners":15218,"consin":15219,"ggling":15220,"simplified":15221,"ATTA":15222,"longest":15223,"bitter":15224,"refusal":15225,"ALSO":15226,"marry":15227,"oses":15228,"voy":15229,"ogical":15230,"insists":15231,"buff":15232,"casm":15233,"CHICA":15234,"Indust":15235,"ikhoi":15236,"objectively":15237,"killings":15238,"exceptional":15239,"Enough":15240,"BEING":15241,"MAY":15242,"funded":15243,"Minnesota":15244,"imagination":15245,"randomly":15246,"cruel":15247,"integrated":15248,"Crime":15249,"tactic":15250,"Huh":15251,"employment":15252,"shopping":15253,"Overall":15254,"Jayjg":15255,
[...]
